alignas(8) const unsigned char lstm_model_quantized_tflite[] = {
  0x1c, 0x00, 0x00, 0x00, 0x54, 0x46, 0x4c, 0x33, 0x14, 0x00, 0x20, 0x00,
  0x1c, 0x00, 0x18, 0x00, 0x14, 0x00, 0x10, 0x00, 0x0c, 0x00, 0x00, 0x00,
  0x08, 0x00, 0x04, 0x00, 0x14, 0x00, 0x00, 0x00, 0x1c, 0x00, 0x00, 0x00,
  0x80, 0x00, 0x00, 0x00, 0xd8, 0x00, 0x00, 0x00, 0x5c, 0x18, 0x00, 0x00,
  0x6c, 0x18, 0x00, 0x00, 0x0c, 0x26, 0x00, 0x00, 0x03, 0x00, 0x00, 0x00,
  0x01, 0x00, 0x00, 0x00, 0x04, 0x00, 0x00, 0x00, 0xb2, 0xe6, 0xff, 0xff,
  0x0c, 0x00, 0x00, 0x00, 0x1c, 0x00, 0x00, 0x00, 0x3c, 0x00, 0x00, 0x00,
  0x0f, 0x00, 0x00, 0x00, 0x73, 0x65, 0x72, 0x76, 0x69, 0x6e, 0x67, 0x5f,
  0x64, 0x65, 0x66, 0x61, 0x75, 0x6c, 0x74, 0x00, 0x01, 0x00, 0x00, 0x00,
  0x04, 0x00, 0x00, 0x00, 0x9c, 0xff, 0xff, 0xff, 0x1c, 0x00, 0x00, 0x00,
  0x04, 0x00, 0x00, 0x00, 0x08, 0x00, 0x00, 0x00, 0x6f, 0x75, 0x74, 0x70,
  0x75, 0x74, 0x5f, 0x30, 0x00, 0x00, 0x00, 0x00, 0x01, 0x00, 0x00, 0x00,
  0x04, 0x00, 0x00, 0x00, 0x66, 0xe7, 0xff, 0xff, 0x04, 0x00, 0x00, 0x00,
  0x01, 0x00, 0x00, 0x00, 0x78, 0x00, 0x00, 0x00, 0x02, 0x00, 0x00, 0x00,
  0x34, 0x00, 0x00, 0x00, 0x04, 0x00, 0x00, 0x00, 0xdc, 0xff, 0xff, 0xff,
  0x1a, 0x00, 0x00, 0x00, 0x04, 0x00, 0x00, 0x00, 0x13, 0x00, 0x00, 0x00,
  0x43, 0x4f, 0x4e, 0x56, 0x45, 0x52, 0x53, 0x49, 0x4f, 0x4e, 0x5f, 0x4d,
  0x45, 0x54, 0x41, 0x44, 0x41, 0x54, 0x41, 0x00, 0x08, 0x00, 0x0c, 0x00,
  0x08, 0x00, 0x04, 0x00, 0x08, 0x00, 0x00, 0x00, 0x19, 0x00, 0x00, 0x00,
  0x04, 0x00, 0x00, 0x00, 0x13, 0x00, 0x00, 0x00, 0x6d, 0x69, 0x6e, 0x5f,
  0x72, 0x75, 0x6e, 0x74, 0x69, 0x6d, 0x65, 0x5f, 0x76, 0x65, 0x72, 0x73,
  0x69, 0x6f, 0x6e, 0x00, 0x1b, 0x00, 0x00, 0x00, 0x80, 0x17, 0x00, 0x00,
  0x78, 0x17, 0x00, 0x00, 0x60, 0x17, 0x00, 0x00, 0x28, 0x17, 0x00, 0x00,
  0x98, 0x0a, 0x00, 0x00, 0x48, 0x0a, 0x00, 0x00, 0xf8, 0x09, 0x00, 0x00,
  0xa8, 0x09, 0x00, 0x00, 0x58, 0x09, 0x00, 0x00, 0x48, 0x08, 0x00, 0x00,
  0x38, 0x07, 0x00, 0x00, 0x28, 0x06, 0x00, 0x00, 0x18, 0x05, 0x00, 0x00,
  0x18, 0x04, 0x00, 0x00, 0x18, 0x03, 0x00, 0x00, 0x18, 0x02, 0x00, 0x00,
  0x18, 0x01, 0x00, 0x00, 0x10, 0x01, 0x00, 0x00, 0xf0, 0x00, 0x00, 0x00,
  0xc0, 0x00, 0x00, 0x00, 0xb8, 0x00, 0x00, 0x00, 0xb0, 0x00, 0x00, 0x00,
  0xa8, 0x00, 0x00, 0x00, 0xa0, 0x00, 0x00, 0x00, 0x98, 0x00, 0x00, 0x00,
  0x78, 0x00, 0x00, 0x00, 0x04, 0x00, 0x00, 0x00, 0x42, 0xe8, 0xff, 0xff,
  0x04, 0x00, 0x00, 0x00, 0x64, 0x00, 0x00, 0x00, 0x0c, 0x00, 0x00, 0x00,
  0x08, 0x00, 0x0e, 0x00, 0x08, 0x00, 0x04, 0x00, 0x08, 0x00, 0x00, 0x00,
  0x10, 0x00, 0x00, 0x00, 0x28, 0x00, 0x00, 0x00, 0x00, 0x00, 0x06, 0x00,
  0x08, 0x00, 0x04, 0x00, 0x06, 0x00, 0x00, 0x00, 0x04, 0x00, 0x00, 0x00,
  0x01, 0x00, 0x00, 0x00, 0xeb, 0x03, 0x00, 0x00, 0x00, 0x00, 0x0a, 0x00,
  0x10, 0x00, 0x0c, 0x00, 0x08, 0x00, 0x04, 0x00, 0x0a, 0x00, 0x00, 0x00,
  0x01, 0x00, 0x00, 0x00, 0x02, 0x00, 0x00, 0x00, 0x04, 0x00, 0x00, 0x00,
  0x12, 0x00, 0x00, 0x00, 0x32, 0x2e, 0x31, 0x34, 0x2e, 0x30, 0x2d, 0x64,
  0x65, 0x76, 0x32, 0x30, 0x32, 0x33, 0x30, 0x35, 0x32, 0x34, 0x00, 0x00,
  0xb2, 0xe8, 0xff, 0xff, 0x04, 0x00, 0x00, 0x00, 0x10, 0x00, 0x00, 0x00,
  0x31, 0x2e, 0x31, 0x34, 0x2e, 0x30, 0x00, 0x00, 0x00, 0x00, 0x00, 0x00,
  0x00, 0x00, 0x00, 0x00, 0xec, 0xdb, 0xff, 0xff, 0xf0, 0xdb, 0xff, 0xff,
  0xf4, 0xdb, 0xff, 0xff, 0xf8, 0xdb, 0xff, 0xff, 0xfc, 0xdb, 0xff, 0xff,
  0xe2, 0xe8, 0xff, 0xff, 0x04, 0x00, 0x00, 0x00, 0x20, 0x00, 0x00, 0x00,
  0x00, 0x38, 0x00, 0x38, 0x00, 0x38, 0x00, 0x38, 0x00, 0x38, 0x00, 0x38,
  0x00, 0x38, 0x00, 0x38, 0x00, 0x38, 0x00, 0x38, 0x00, 0x38, 0x00, 0x38,
  0x00, 0x38, 0x00, 0x38, 0x00, 0x38, 0x00, 0x38, 0x0e, 0xe9, 0xff, 0xff,
  0x04, 0x00, 0x00, 0x00, 0x10, 0x00, 0x00, 0x00, 0x7f, 0x7f, 0x7f, 0x7f,
  0x7f, 0x7f, 0x7f, 0x7f, 0x7f, 0x7f, 0x7f, 0x7f, 0x7f, 0x7f, 0x7f, 0x7f,
  0x48, 0xdc, 0xff, 0xff, 0x2e, 0xe9, 0xff, 0xff, 0x04, 0x00, 0x00, 0x00,
  0xf0, 0x00, 0x00, 0x00, 0xfa, 0xda, 0xe5, 0xf1, 0xfd, 0xf9, 0xd2, 0xff,
  0xfc, 0xfa, 0xf1, 0xdf, 0xdc, 0xd7, 0xe2, 0xd9, 0x1b, 0xec, 0xd0, 0x43,
  0xbb, 0x0a, 0x19, 0xd1, 0xf8, 0x28, 0xd3, 0x21, 0x1d, 0xc6, 0x3c, 0x6e,
  0x06, 0x4c, 0x4f, 0x32, 0x36, 0x58, 0x1d, 0x0c, 0x44, 0xfd, 0x29, 0x24,
  0x28, 0xea, 0xe5, 0x1b, 0x05, 0x0a, 0x24, 0x06, 0xfe, 0x11, 0x33, 0x2f,
  0x35, 0x42, 0x66, 0x06, 0xd8, 0x15, 0x26, 0xf1, 0x00, 0x26, 0xf6, 0x1b,
  0xfd, 0x16, 0x1e, 0x0b, 0x03, 0x0c, 0x14, 0xda, 0xe1, 0xc5, 0xdc, 0xdb,
  0x01, 0xde, 0xf1, 0xd7, 0xf8, 0xea, 0x0f, 0x10, 0x1d, 0xef, 0x66, 0xd9,
  0x22, 0x2d, 0xe2, 0x1d, 0x56, 0xee, 0xf8, 0x26, 0xde, 0x05, 0x49, 0xe2,
  0xf3, 0xd9, 0x2b, 0xe3, 0xf3, 0x38, 0xeb, 0x00, 0x36, 0xfd, 0xde, 0x1c,
  0xe5, 0x1a, 0xfa, 0x0f, 0x20, 0x08, 0x2f, 0x05, 0x21, 0x24, 0x1b, 0xee,
  0x06, 0xfb, 0x08, 0x2c, 0x22, 0xee, 0x0e, 0x2d, 0x32, 0x30, 0x11, 0x53,
  0xfb, 0x09, 0x21, 0xf5, 0xf1, 0x28, 0x05, 0xf9, 0x31, 0xe3, 0xec, 0xe6,
  0xb1, 0xdf, 0x00, 0xb0, 0xdd, 0x11, 0xd8, 0x14, 0x1b, 0x16, 0xf0, 0x52,
  0x24, 0x1e, 0x1e, 0x18, 0x12, 0xf5, 0x1c, 0xfe, 0x02, 0x2a, 0x0b, 0xfe,
  0x2c, 0xf5, 0x01, 0x11, 0xd1, 0x36, 0xe8, 0x0c, 0x35, 0x05, 0xca, 0x00,
  0x11, 0xfa, 0x15, 0xe6, 0x01, 0x02, 0x03, 0xfb, 0xf8, 0x1d, 0xde, 0x15,
  0x0e, 0xbf, 0x1a, 0x1e, 0xf6, 0x22, 0x20, 0xe4, 0x1d, 0x35, 0x45, 0x56,
  0xe8, 0x60, 0x75, 0xfc, 0x7f, 0x5a, 0xdb, 0x62, 0x5a, 0xf1, 0x72, 0x52,
  0xee, 0x0e, 0xf8, 0xea, 0x02, 0x12, 0xf7, 0xd4, 0xe8, 0xe8, 0xd2, 0xe1,
  0x06, 0xf1, 0xe6, 0xca, 0x2a, 0xea, 0xff, 0xff, 0x04, 0x00, 0x00, 0x00,
  0xf0, 0x00, 0x00, 0x00, 0xc7, 0x30, 0xd5, 0xc9, 0x05, 0xde, 0xc8, 0x21,
  0x12, 0xd0, 0xe8, 0xe8, 0x14, 0x0e, 0xf0, 0x49, 0x5b, 0x01, 0x0b, 0x07,
  0x26, 0x37, 0x33, 0x2e, 0x12, 0x4f, 0x11, 0x3d, 0x42, 0x48, 0x0e, 0x21,
  0xd7, 0xe3, 0xed, 0x0c, 0xd4, 0xef, 0xe2, 0xfd, 0xca, 0x4a, 0xff, 0xfa,
  0x31, 0x1a, 0x2d, 0xee, 0xf6, 0x4a, 0x08, 0xff, 0x5d, 0x3c, 0x1d, 0x5d,
  0x06, 0x02, 0x44, 0x1f, 0xf7, 0x02, 0x5c, 0x10, 0xb1, 0x67, 0x2f, 0x11,
  0x37, 0xea, 0xd5, 0x62, 0x22, 0x0c, 0x40, 0x33, 0x04, 0x54, 0x49, 0xfb,
  0x7f, 0x55, 0xfc, 0x5c, 0x2d, 0x46, 0x74, 0x33, 0xf4, 0x28, 0xe5, 0xed,
  0x02, 0x15, 0x04, 0xc0, 0x36, 0x33, 0xf1, 0xf9, 0x0a, 0xe0, 0x19, 0x4b,
  0x1b, 0x21, 0x13, 0xa6, 0x21, 0x12, 0xd6, 0x29, 0xe1, 0xc6, 0xfa, 0x42,
  0xc0, 0x2d, 0x0a, 0xee, 0x40, 0x1b, 0x25, 0x17, 0xcf, 0xea, 0x08, 0xf8,
  0x05, 0xf8, 0xf4, 0x16, 0x10, 0xda, 0xe3, 0xf9, 0x67, 0x21, 0xcd, 0x55,
  0xe6, 0xc7, 0x31, 0xee, 0xca, 0x38, 0xce, 0xe9, 0x13, 0xc8, 0xfd, 0x33,
  0x1d, 0x2c, 0x51, 0x30, 0xe9, 0x4b, 0x7f, 0x31, 0xf9, 0x7c, 0xfc, 0x05,
  0x50, 0xfb, 0xc4, 0x20, 0x10, 0xb6, 0x6c, 0xee, 0xb6, 0x1d, 0x24, 0x0f,
  0x3e, 0x0b, 0xc7, 0x3d, 0x14, 0xfc, 0x01, 0x16, 0xe9, 0x31, 0x28, 0xe1,
  0x3c, 0x01, 0x30, 0x21, 0x56, 0x29, 0x00, 0xcc, 0x15, 0x3c, 0x1a, 0x20,
  0x34, 0xc4, 0x47, 0x0e, 0xcb, 0x35, 0x29, 0x01, 0x4d, 0x5f, 0x28, 0xcc,
  0xb9, 0xee, 0xf1, 0xcc, 0xe9, 0x20, 0x12, 0xfd, 0x14, 0xcb, 0x3d, 0xe1,
  0xee, 0xbc, 0xe3, 0x1e, 0x0e, 0xd1, 0xb9, 0xd7, 0xd5, 0xef, 0x16, 0x1d,
  0xf0, 0xc3, 0xfa, 0x14, 0x26, 0xeb, 0xff, 0xff, 0x04, 0x00, 0x00, 0x00,
  0xf0, 0x00, 0x00, 0x00, 0x42, 0xff, 0x7a, 0x06, 0x46, 0x24, 0x32, 0x25,
  0x17, 0x29, 0x28, 0x3b, 0x00, 0x3a, 0x06, 0x2f, 0x18, 0x34, 0xea, 0x28,
  0x1f, 0x06, 0xf5, 0x1d, 0xe0, 0xc8, 0x1d, 0xf1, 0xca, 0x19, 0xe4, 0xdb,
  0x30, 0xe8, 0xc3, 0x11, 0xdb, 0xb7, 0x43, 0x32, 0xd7, 0x43, 0x22, 0xb7,
  0x40, 0x32, 0xdd, 0xe7, 0xed, 0x13, 0x10, 0x44, 0x08, 0x02, 0x3c, 0xbb,
  0xd3, 0x33, 0xe3, 0x19, 0x36, 0xf0, 0xf7, 0x0a, 0x08, 0xf1, 0xfa, 0xbf,
  0x12, 0xe8, 0xc6, 0xf4, 0xed, 0xe7, 0xf9, 0xf0, 0x56, 0xf9, 0xd6, 0x21,
  0xdf, 0x1e, 0x6c, 0xf0, 0x19, 0x66, 0xd5, 0x08, 0x20, 0x05, 0x3b, 0x25,
  0x0c, 0x4f, 0xfd, 0xc1, 0x2e, 0xe6, 0xce, 0x3f, 0xd8, 0xd9, 0xf4, 0x23,
  0xd3, 0x23, 0xdf, 0xc9, 0xd3, 0xf1, 0xed, 0xe5, 0xe1, 0xe4, 0xf5, 0x10,
  0x0b, 0xc8, 0x12, 0xda, 0x01, 0xb4, 0x07, 0x0d, 0xb8, 0xdb, 0x09, 0xf2,
  0xe4, 0x37, 0xfe, 0xfb, 0x15, 0xf5, 0xff, 0xd4, 0x21, 0xcb, 0xd3, 0x08,
  0xc6, 0x0a, 0x35, 0xfe, 0x24, 0xed, 0xbf, 0x23, 0xf0, 0xb6, 0xf6, 0x2a,
  0x2b, 0xd0, 0xec, 0xfe, 0xc3, 0xf5, 0x3e, 0xb8, 0x1d, 0x15, 0xc3, 0x04,
  0xe5, 0x0f, 0x13, 0x3a, 0x2c, 0x3d, 0x32, 0x01, 0x35, 0x4d, 0x29, 0xfb,
  0x61, 0x01, 0x30, 0x05, 0x00, 0x39, 0x30, 0xd8, 0x28, 0x10, 0x1f, 0xff,
  0xfe, 0xd8, 0xdb, 0x05, 0x00, 0xe9, 0x00, 0x0d, 0x1f, 0x3b, 0xde, 0x0b,
  0x36, 0xf9, 0xf9, 0x29, 0x0f, 0xe2, 0xd5, 0x0e, 0xf6, 0xe3, 0x1c, 0x2e,
  0xac, 0x0f, 0xdc, 0xe1, 0x15, 0xde, 0xc2, 0xdf, 0x2f, 0xa7, 0xe6, 0x23,
  0xb5, 0x17, 0x81, 0xed, 0xe2, 0xb6, 0x1b, 0xd3, 0xdb, 0x03, 0xd0, 0xbf,
  0xd7, 0xf2, 0xd2, 0xc1, 0x22, 0xec, 0xff, 0xff, 0x04, 0x00, 0x00, 0x00,
  0xf0, 0x00, 0x00, 0x00, 0x15, 0x14, 0xf2, 0x12, 0x17, 0xf8, 0xe8, 0x0d,
  0xd5, 0xdf, 0x21, 0xdd, 0xde, 0x12, 0xf3, 0xef, 0x6b, 0xfe, 0x03, 0x63,
  0x23, 0x17, 0x7f, 0xfd, 0x2b, 0x3f, 0x17, 0x39, 0x6e, 0x12, 0x30, 0xff,
  0x2d, 0x09, 0x0a, 0x2a, 0x1f, 0x1e, 0x41, 0x16, 0x0a, 0x1b, 0xfc, 0xe0,
  0x3b, 0x19, 0x47, 0x3c, 0x2c, 0x26, 0x39, 0x33, 0x2c, 0x2b, 0x49, 0x5b,
  0x31, 0x2d, 0x2b, 0x16, 0x06, 0x23, 0x3e, 0x07, 0x16, 0x38, 0x2e, 0x0d,
  0x1d, 0x3a, 0x0d, 0x22, 0x0e, 0x2f, 0x19, 0x27, 0x16, 0x02, 0x2c, 0xf8,
  0x1d, 0x21, 0x1e, 0x30, 0x2e, 0x1f, 0x13, 0x49, 0x27, 0x42, 0x48, 0xff,
  0x02, 0x28, 0x1c, 0x02, 0x23, 0x02, 0x09, 0x35, 0x17, 0x18, 0x31, 0x0a,
  0x12, 0x03, 0x48, 0xf9, 0xe8, 0x1f, 0x0c, 0x00, 0x4d, 0x39, 0xff, 0x3b,
  0x21, 0xee, 0x37, 0x0b, 0x38, 0x01, 0x19, 0x23, 0xc8, 0xf4, 0x10, 0xeb,
  0x20, 0xf9, 0xd6, 0x11, 0x1f, 0xde, 0xf6, 0x28, 0x4c, 0xfb, 0xed, 0x30,
  0x04, 0xf3, 0x32, 0xe7, 0xed, 0x29, 0xe2, 0x10, 0x03, 0xdf, 0xf3, 0x67,
  0x11, 0x0b, 0x76, 0xfd, 0x04, 0x65, 0x1f, 0x18, 0x6e, 0x26, 0xfb, 0x7e,
  0x17, 0xe3, 0x05, 0x1c, 0xdc, 0xd2, 0xeb, 0x00, 0xd6, 0xfc, 0x09, 0xec,
  0x0c, 0xed, 0xe0, 0xe7, 0xf2, 0x24, 0x23, 0x09, 0x1e, 0xee, 0x17, 0x15,
  0x13, 0x1f, 0x2b, 0xef, 0x04, 0x01, 0x10, 0x12, 0x61, 0x26, 0x16, 0x58,
  0x3b, 0xe9, 0x5e, 0x07, 0x05, 0x55, 0x2f, 0xe1, 0x45, 0x2d, 0x1e, 0x3a,
  0x0d, 0x1b, 0x0d, 0xf9, 0x31, 0x15, 0xe9, 0x48, 0x3e, 0xf1, 0x20, 0x25,
  0xe4, 0xf6, 0x10, 0xfc, 0xe9, 0xf8, 0x1f, 0xed, 0x0e, 0x19, 0xff, 0xe2,
  0x1d, 0xe2, 0x13, 0xf4, 0x1e, 0xed, 0xff, 0xff, 0x04, 0x00, 0x00, 0x00,
  0x00, 0x01, 0x00, 0x00, 0x0d, 0x00, 0x06, 0xf9, 0x08, 0xfb, 0xfe, 0x12,
  0xfd, 0x08, 0x21, 0x0b, 0x09, 0x02, 0x0a, 0xe4, 0x18, 0x01, 0x10, 0xbe,
  0x16, 0xdb, 0xf1, 0x0b, 0x2e, 0x13, 0x2d, 0x19, 0x07, 0x1a, 0x24, 0x00,
  0x04, 0xe2, 0xfc, 0xf0, 0x23, 0xf0, 0x19, 0xec, 0x29, 0xe7, 0x04, 0x23,
  0x0e, 0x04, 0x01, 0xde, 0x21, 0x03, 0x10, 0x07, 0x1a, 0xcc, 0x06, 0x2f,
  0x34, 0xf2, 0x13, 0x10, 0x11, 0x14, 0x0d, 0xe9, 0xfd, 0xea, 0xfc, 0xa4,
  0xfa, 0x17, 0x9c, 0xfd, 0xbf, 0xf5, 0xf7, 0x01, 0xf2, 0xfb, 0x07, 0xf5,
  0x1a, 0xeb, 0xd8, 0xac, 0x09, 0x23, 0xd3, 0x3c, 0x2b, 0x11, 0x43, 0x19,
  0x04, 0xeb, 0x5a, 0xef, 0x12, 0x27, 0x06, 0x32, 0x18, 0xf1, 0xf3, 0x11,
  0xe4, 0xfd, 0xfc, 0xfc, 0x23, 0x2d, 0xfa, 0xf1, 0x09, 0x0f, 0xde, 0xd9,
  0xc3, 0x08, 0xe7, 0x01, 0xb5, 0x3c, 0x33, 0xf0, 0xeb, 0xea, 0x0d, 0xfb,
  0x01, 0x20, 0xc8, 0x1a, 0xd0, 0xfd, 0x18, 0xf4, 0xfa, 0x0c, 0x2d, 0x19,
  0x09, 0xdf, 0xf9, 0xeb, 0xf9, 0x00, 0xed, 0x1a, 0xdd, 0xfd, 0x46, 0x15,
  0x1b, 0x03, 0x02, 0xfb, 0xea, 0x06, 0xdb, 0xfe, 0x0d, 0xbb, 0xd9, 0xf9,
  0xf7, 0x02, 0x01, 0x4a, 0x1d, 0x39, 0xcb, 0x03, 0xfe, 0xfa, 0x7f, 0xe6,
  0x09, 0x01, 0xd5, 0xe5, 0xe4, 0x0c, 0x12, 0xde, 0xf8, 0x16, 0xf7, 0x0d,
  0x01, 0xef, 0x1f, 0xfa, 0xf2, 0x08, 0x2c, 0x07, 0xfc, 0xfa, 0x06, 0x04,
  0x16, 0x03, 0x0b, 0x0d, 0xee, 0x19, 0xfd, 0x16, 0xf2, 0xc9, 0x08, 0x16,
  0xe9, 0xfa, 0x3b, 0x0a, 0x1f, 0xf2, 0xd3, 0xf4, 0xfc, 0xfa, 0x04, 0x16,
  0x28, 0xea, 0xe0, 0xd4, 0x12, 0xff, 0xf4, 0x18, 0xf0, 0xeb, 0xf1, 0x2e,
  0x01, 0xf3, 0xef, 0xc4, 0x1b, 0xed, 0xeb, 0xf1, 0x03, 0xf1, 0xff, 0x16,
  0x0d, 0x0d, 0x08, 0x0e, 0x05, 0xf7, 0x3a, 0xdf, 0x2a, 0xee, 0xff, 0xff,
  0x04, 0x00, 0x00, 0x00, 0x00, 0x01, 0x00, 0x00, 0x1b, 0x03, 0xf5, 0xf8,
  0x09, 0xf1, 0xe9, 0x15, 0xfd, 0x49, 0x0c, 0x17, 0x17, 0x04, 0x12, 0xd2,
  0xf7, 0xb6, 0xe9, 0xcd, 0x18, 0x25, 0x0e, 0x08, 0xef, 0x29, 0xc0, 0xdd,
  0xda, 0xd5, 0x28, 0x36, 0x05, 0xc8, 0x06, 0xf2, 0x16, 0xcf, 0xe8, 0x2d,
  0x0f, 0xe4, 0xe5, 0x0d, 0xc9, 0xda, 0xec, 0xfe, 0xe2, 0xdb, 0xe3, 0xb6,
  0x2c, 0xd5, 0xe4, 0x26, 0x02, 0x51, 0xf7, 0xc3, 0xcc, 0xb7, 0xf0, 0x1a,
  0xe9, 0xfb, 0x3d, 0xe3, 0x10, 0xc6, 0xb0, 0x0f, 0xce, 0xf8, 0xc9, 0xd7,
  0x06, 0x32, 0xad, 0x0b, 0xf3, 0xbb, 0xfd, 0x01, 0x19, 0x01, 0xb7, 0x14,
  0x9f, 0x36, 0xd6, 0xf2, 0xc6, 0xe8, 0xd4, 0xdc, 0x0d, 0xe4, 0xd3, 0x2a,
  0x0a, 0x3e, 0x11, 0x2f, 0xeb, 0x29, 0x02, 0x0e, 0xf7, 0xf8, 0x39, 0x1c,
  0xf3, 0xf6, 0xde, 0xc8, 0x0b, 0x46, 0xbe, 0x04, 0xaa, 0x32, 0x00, 0xd9,
  0xde, 0xdc, 0x5e, 0x23, 0x18, 0x42, 0xbe, 0x54, 0xd3, 0xe2, 0x0a, 0xfd,
  0xd8, 0x0e, 0xf9, 0xfb, 0xb7, 0xd3, 0xd4, 0xc2, 0xf2, 0xd3, 0x04, 0xe2,
  0xed, 0x2f, 0x06, 0x17, 0xf7, 0x10, 0xc7, 0x1a, 0xcd, 0xcd, 0xc0, 0x0c,
  0xfe, 0xf5, 0x27, 0xd7, 0x15, 0xcc, 0xf6, 0xd2, 0xeb, 0x38, 0xfd, 0xc5,
  0x02, 0xcf, 0xee, 0x08, 0xf5, 0xdd, 0x23, 0x08, 0x0c, 0xd5, 0xd4, 0x11,
  0xf4, 0xf8, 0x03, 0x0b, 0x1b, 0xfb, 0xee, 0xe8, 0xf9, 0xca, 0x3d, 0xc4,
  0x0a, 0x4a, 0xbe, 0xee, 0x01, 0xf2, 0x97, 0x08, 0x1f, 0xf1, 0xe8, 0x27,
  0xf3, 0xfe, 0xe7, 0xb0, 0x07, 0x06, 0xcd, 0x15, 0xfd, 0x25, 0x67, 0xe2,
  0xd7, 0xd6, 0xe3, 0xe0, 0xf1, 0x99, 0xc1, 0x04, 0x6a, 0x01, 0x0a, 0x37,
  0xe3, 0xf6, 0x81, 0xbe, 0xec, 0xbe, 0x1c, 0x1d, 0x26, 0xf0, 0xd2, 0xce,
  0x11, 0x0e, 0xd8, 0xf5, 0xf3, 0x42, 0x30, 0x23, 0xf4, 0xd7, 0x62, 0xce,
  0x36, 0xef, 0xff, 0xff, 0x04, 0x00, 0x00, 0x00, 0x00, 0x01, 0x00, 0x00,
  0x10, 0xae, 0x29, 0x02, 0x2c, 0xff, 0x54, 0xc8, 0xab, 0xcd, 0xc3, 0xfa,
  0xe2, 0xbc, 0x8a, 0xe9, 0xec, 0x2b, 0xbb, 0x20, 0xd7, 0x0a, 0x0c, 0xc7,
  0xcf, 0xeb, 0x10, 0xf4, 0xf5, 0xe7, 0xc7, 0x13, 0xd7, 0x2a, 0x21, 0x01,
  0xff, 0xe0, 0xfb, 0xf2, 0xf1, 0x10, 0x1b, 0xf3, 0xd4, 0x25, 0xe3, 0xf4,
  0xd2, 0x20, 0xed, 0x25, 0x11, 0x01, 0xfc, 0x15, 0xe7, 0x07, 0xed, 0xb2,
  0x0a, 0x12, 0x1c, 0xe7, 0x16, 0x29, 0x3a, 0xd9, 0xff, 0xf9, 0xea, 0xf7,
  0x18, 0xd9, 0xf4, 0x2c, 0xee, 0x28, 0x1f, 0xc6, 0xdb, 0xb1, 0x2a, 0xf4,
  0xe8, 0x33, 0xea, 0x19, 0x08, 0xef, 0xda, 0xef, 0xe9, 0xf7, 0xb7, 0x4b,
  0xc0, 0xbb, 0x1a, 0x31, 0x02, 0xdd, 0xee, 0xf5, 0x08, 0x07, 0xfa, 0xc4,
  0x22, 0x09, 0x15, 0x36, 0x44, 0xf4, 0xcb, 0x1a, 0xee, 0xdb, 0xe4, 0x07,
  0xe2, 0xfd, 0x1a, 0x13, 0x1b, 0x45, 0xfc, 0xd4, 0xed, 0x17, 0x3f, 0x48,
  0xed, 0x00, 0x26, 0xec, 0x09, 0xe9, 0x07, 0x24, 0x18, 0x2f, 0xfe, 0xfe,
  0x27, 0x27, 0xb2, 0x1f, 0x81, 0x0c, 0xf8, 0x26, 0x0d, 0x28, 0x21, 0xf4,
  0xf6, 0xed, 0x2c, 0xfd, 0x08, 0x23, 0xe5, 0x2d, 0xf8, 0x0d, 0x4f, 0xf3,
  0xe2, 0xe0, 0x16, 0x0d, 0xfb, 0xf8, 0x03, 0xcc, 0xbe, 0xa0, 0x37, 0xf1,
  0x2d, 0x13, 0xfa, 0x97, 0xee, 0xc1, 0xb7, 0xfe, 0x0c, 0xe0, 0xa4, 0xef,
  0xf5, 0x19, 0x2d, 0x0b, 0x0d, 0x18, 0xea, 0xeb, 0x04, 0xd3, 0xd1, 0xf3,
  0x06, 0x45, 0xee, 0x38, 0xd3, 0x4b, 0x0a, 0x1c, 0x0b, 0xce, 0xfa, 0xfd,
  0xd5, 0xf7, 0x49, 0xd3, 0x0c, 0xff, 0xb8, 0x0c, 0x3d, 0xf9, 0x1b, 0x0a,
  0xe2, 0x47, 0x00, 0xf9, 0x02, 0xe5, 0xf5, 0x18, 0x46, 0x0b, 0xfb, 0xc5,
  0xd3, 0x27, 0xf9, 0x47, 0xa9, 0xae, 0x37, 0xc4, 0x77, 0xd4, 0xc0, 0x21,
  0x08, 0xe0, 0xda, 0x63, 0x42, 0xf0, 0xff, 0xff, 0x04, 0x00, 0x00, 0x00,
  0x00, 0x01, 0x00, 0x00, 0x18, 0x0f, 0xeb, 0x04, 0xeb, 0x02, 0x0d, 0x07,
  0xff, 0x07, 0x20, 0x2a, 0xed, 0x00, 0x08, 0xe9, 0xf4, 0xf9, 0xf3, 0xcf,
  0x13, 0x17, 0xcb, 0xf1, 0xfa, 0xfd, 0xeb, 0x01, 0x00, 0x09, 0x11, 0xf7,
  0x17, 0x18, 0x02, 0xed, 0x1b, 0x1a, 0x04, 0xe0, 0x0b, 0xac, 0xdd, 0x1b,
  0x02, 0x1a, 0xdd, 0x19, 0x25, 0x2c, 0x09, 0x08, 0xe0, 0xf3, 0xfa, 0xf2,
  0x0b, 0xe8, 0xff, 0x12, 0x1e, 0x43, 0xf1, 0xf8, 0xd7, 0x0c, 0x2b, 0xd6,
  0x22, 0x09, 0xa0, 0xfc, 0xc0, 0xda, 0xe1, 0x09, 0xfd, 0x36, 0xb6, 0x01,
  0xf6, 0x07, 0xd9, 0xcd, 0x32, 0xf4, 0xde, 0x2b, 0x14, 0xde, 0x04, 0x12,
  0x17, 0x07, 0x05, 0xe2, 0x2f, 0x45, 0xfb, 0x4e, 0xfe, 0xf1, 0x06, 0x25,
  0xfe, 0xde, 0x26, 0x1e, 0x3b, 0x38, 0x18, 0xf1, 0x08, 0x1a, 0xf7, 0xc1,
  0xc8, 0x14, 0xc8, 0xfc, 0xe2, 0x2a, 0x52, 0xf5, 0x0d, 0x15, 0x04, 0xf1,
  0x37, 0x27, 0xec, 0x44, 0xf2, 0xd2, 0x1c, 0xd6, 0xe8, 0xc9, 0xf6, 0x2b,
  0x25, 0x0b, 0x07, 0xd0, 0x35, 0x12, 0xd4, 0x17, 0xb0, 0x27, 0x44, 0x05,
  0x03, 0x15, 0x22, 0x10, 0xed, 0x28, 0x1b, 0xf3, 0x2b, 0xea, 0xa7, 0xf7,
  0xe9, 0xc9, 0xf8, 0x17, 0xdf, 0x39, 0x0a, 0xdc, 0x03, 0x05, 0x2b, 0xbf,
  0x17, 0x09, 0x0a, 0x1e, 0x04, 0xfc, 0x1d, 0xee, 0x0e, 0x0f, 0x13, 0x2f,
  0x03, 0x0e, 0xf7, 0xfe, 0xed, 0x02, 0xba, 0xfb, 0xec, 0xfc, 0x16, 0x12,
  0x0c, 0xfb, 0xd6, 0x1b, 0x1b, 0x1b, 0x06, 0x04, 0xe9, 0x1c, 0xe3, 0xf7,
  0xeb, 0xf9, 0x05, 0x37, 0xfe, 0xf1, 0x0c, 0xf5, 0x0f, 0x04, 0xd0, 0x10,
  0x21, 0x22, 0x81, 0x32, 0xba, 0x64, 0x4d, 0x02, 0x12, 0xba, 0xd6, 0x17,
  0x49, 0xda, 0x30, 0xf7, 0x2b, 0xf8, 0xda, 0xf0, 0xf4, 0xfd, 0x17, 0xfa,
  0xea, 0xf3, 0x10, 0x29, 0x0a, 0xe4, 0x39, 0xe7, 0x4e, 0xf1, 0xff, 0xff,
  0x04, 0x00, 0x00, 0x00, 0x40, 0x00, 0x00, 0x00, 0xa4, 0x20, 0x00, 0x00,
  0x39, 0x0e, 0x00, 0x00, 0x95, 0x4f, 0x00, 0x00, 0x61, 0x2f, 0x00, 0x00,
  0x47, 0xfd, 0xff, 0xff, 0xc1, 0xff, 0xff, 0xff, 0xbc, 0x22, 0x00, 0x00,
  0xac, 0xff, 0xff, 0xff, 0x0c, 0x21, 0x00, 0x00, 0x13, 0x04, 0x00, 0x00,
  0x95, 0x02, 0x00, 0x00, 0x9e, 0x22, 0x00, 0x00, 0x72, 0xfa, 0xff, 0xff,
  0x7d, 0x15, 0x00, 0x00, 0x9a, 0x4e, 0x00, 0x00, 0xb9, 0x30, 0x00, 0x00,
  0x9a, 0xf1, 0xff, 0xff, 0x04, 0x00, 0x00, 0x00, 0x40, 0x00, 0x00, 0x00,
  0x30, 0xea, 0x00, 0x00, 0xfe, 0x9c, 0x00, 0x00, 0xa5, 0xb4, 0x00, 0x00,
  0x69, 0x70, 0x00, 0x00, 0x29, 0x8e, 0x00, 0x00, 0xef, 0xb6, 0x00, 0x00,
  0x89, 0xbc, 0x00, 0x00, 0x69, 0x8c, 0x00, 0x00, 0x95, 0xc1, 0x00, 0x00,
  0x45, 0xa5, 0x00, 0x00, 0x0c, 0x7c, 0x00, 0x00, 0xf0, 0xba, 0x00, 0x00,
  0x98, 0xc5, 0x00, 0x00, 0x1e, 0xa0, 0x00, 0x00, 0x46, 0x97, 0x00, 0x00,
  0x42, 0xe8, 0x00, 0x00, 0xe6, 0xf1, 0xff, 0xff, 0x04, 0x00, 0x00, 0x00,
  0x40, 0x00, 0x00, 0x00, 0x8f, 0x1d, 0x00, 0x00, 0x5b, 0xf2, 0xff, 0xff,
  0x80, 0x0a, 0x00, 0x00, 0xa2, 0xc1, 0xff, 0xff, 0xba, 0x3b, 0x00, 0x00,
  0x94, 0xf0, 0xff, 0xff, 0xae, 0xe8, 0xff, 0xff, 0x6f, 0x2c, 0x00, 0x00,
  0x78, 0x12, 0x00, 0x00, 0x16, 0x03, 0x00, 0x00, 0xbb, 0x37, 0x00, 0x00,
  0xac, 0x01, 0x00, 0x00, 0x2c, 0xe1, 0xff, 0xff, 0xe9, 0xdb, 0xff, 0xff,
  0x53, 0x2d, 0x00, 0x00, 0xb0, 0xdd, 0xff, 0xff, 0x32, 0xf2, 0xff, 0xff,
  0x04, 0x00, 0x00, 0x00, 0x40, 0x00, 0x00, 0x00, 0x9f, 0x27, 0x00, 0x00,
  0x6b, 0xfd, 0xff, 0xff, 0xcc, 0x24, 0x00, 0x00, 0x53, 0x19, 0x00, 0x00,
  0x41, 0xfa, 0xff, 0xff, 0xe1, 0x10, 0x00, 0x00, 0x53, 0x34, 0x00, 0x00,
  0xae, 0x0e, 0x00, 0x00, 0xe0, 0x39, 0x00, 0x00, 0x5f, 0x12, 0x00, 0x00,
  0xb5, 0x08, 0x00, 0x00, 0xa4, 0x1c, 0x00, 0x00, 0x00, 0x11, 0x00, 0x00,
  0x86, 0x07, 0x00, 0x00, 0x35, 0x39, 0x00, 0x00, 0xca, 0x2c, 0x00, 0x00,
  0x7e, 0xf2, 0xff, 0xff, 0x04, 0x00, 0x00, 0x00, 0x80, 0x0c, 0x00, 0x00,
  0xe2, 0x0b, 0x15, 0xf9, 0x18, 0xe3, 0xf3, 0x0f, 0x12, 0xff, 0x0e, 0x05,
  0x09, 0xf0, 0x04, 0x15, 0xf0, 0x02, 0x0d, 0xf8, 0x0c, 0xeb, 0xee, 0x0e,
  0xfa, 0x0b, 0xfc, 0xf9, 0x05, 0xf8, 0x09, 0x15, 0xe3, 0x02, 0x05, 0xf7,
  0x0e, 0x05, 0xfe, 0x02, 0xfa, 0x00, 0xf9, 0xf1, 0x03, 0x02, 0x08, 0x28,
  0xea, 0xfc, 0x08, 0xff, 0x0f, 0x02, 0x02, 0xfa, 0xf0, 0x06, 0x0b, 0xfe,
  0xfe, 0x03, 0xfe, 0x25, 0xe7, 0xff, 0x0f, 0x0d, 0x14, 0x04, 0x07, 0xfe,
  0xee, 0x05, 0x15, 0xf6, 0xff, 0xf6, 0x03, 0x26, 0xf3, 0xf8, 0x0c, 0x12,
  0x13, 0x08, 0x09, 0xff, 0xf9, 0x0d, 0x0d, 0xf9, 0xf4, 0x00, 0xf8, 0x18,
  0xff, 0xee, 0x03, 0x16, 0x15, 0x09, 0x0f, 0xf7, 0xf7, 0x05, 0x0b, 0xf1,
  0xf5, 0xf6, 0xfd, 0x18, 0xf3, 0xf1, 0x06, 0x1f, 0x03, 0x11, 0x09, 0xee,
  0xfa, 0x06, 0x03, 0x01, 0xfc, 0xf6, 0xde, 0x04, 0xf5, 0xfd, 0x0d, 0x19,
  0x04, 0x05, 0x13, 0xf8, 0x07, 0xfe, 0x0e, 0x08, 0x00, 0xfe, 0xec, 0x08,
  0xf8, 0x04, 0xee, 0x1c, 0xfe, 0x1b, 0x1b, 0xf8, 0x09, 0xfc, 0xf9, 0x03,
  0x03, 0xfa, 0x0f, 0x0d, 0xfb, 0x07, 0xf1, 0x12, 0xf0, 0x2a, 0x2b, 0xe0,
  0x09, 0xf9, 0xe8, 0xfe, 0x05, 0x00, 0x0b, 0x04, 0x06, 0x12, 0xf5, 0x0e,
  0xee, 0x17, 0x23, 0xe3, 0x13, 0xf0, 0xf5, 0xfd, 0x02, 0xfb, 0x21, 0x0c,
  0x08, 0x0d, 0xeb, 0x00, 0xe4, 0x1b, 0x10, 0xd3, 0x12, 0xf1, 0xed, 0x09,
  0xfe, 0xfa, 0x30, 0x14, 0x04, 0x0f, 0xef, 0xff, 0xe5, 0x11, 0xf8, 0xd7,
  0x00, 0xfe, 0xe8, 0x04, 0x03, 0xf4, 0x29, 0x10, 0x02, 0x04, 0xf2, 0xff,
  0xe5, 0x1c, 0xe9, 0xe5, 0x00, 0xf0, 0xde, 0xfc, 0x0b, 0xed, 0x26, 0x0d,
  0xf3, 0xfb, 0xf7, 0x06, 0xd8, 0x0f, 0xe2, 0xe9, 0x01, 0xf1, 0xec, 0xf9,
  0x03, 0xf0, 0x19, 0x03, 0xf3, 0xfa, 0xe8, 0x04, 0xd4, 0x14, 0xd9, 0xf3,
  0xfc, 0xe0, 0xe9, 0xf9, 0x09, 0xef, 0x1e, 0xff, 0xf2, 0xf4, 0xdf, 0x00,
  0xd6, 0x21, 0xd5, 0xef, 0xf9, 0xed, 0xe3, 0xf3, 0x03, 0xe7, 0x1b, 0xfa,
  0xe6, 0xeb, 0xdb, 0xf7, 0xd4, 0x2c, 0xe3, 0xf9, 0xf8, 0xeb, 0xe0, 0xde,
  0x0a, 0xe2, 0x28, 0xf7, 0xe6, 0xec, 0xdb, 0xf1, 0xc9, 0x33, 0xe6, 0xea,
  0xf1, 0xef, 0xce, 0xe0, 0x0c, 0xd7, 0x28, 0xec, 0xee, 0xf8, 0x0f, 0x0b,
  0x04, 0x06, 0x06, 0xfd, 0x01, 0x08, 0x0c, 0xf8, 0xf9, 0x09, 0x05, 0x14,
  0xf1, 0x00, 0xff, 0x11, 0x03, 0x0f, 0x02, 0x11, 0x06, 0x05, 0xfc, 0xf2,
  0xfd, 0xfc, 0x02, 0x1d, 0xe5, 0xf3, 0x0b, 0xff, 0x0d, 0x08, 0x01, 0x04,
  0x0f, 0x07, 0xff, 0x06, 0xf1, 0x00, 0xfa, 0x13, 0xec, 0xf8, 0x0f, 0x07,
  0x1f, 0x0e, 0x04, 0x07, 0x0b, 0x08, 0x03, 0xfa, 0xfe, 0xfb, 0xef, 0x12,
  0xef, 0x08, 0x12, 0xfe, 0x17, 0x11, 0x0d, 0xfb, 0x03, 0xff, 0x10, 0x01,
  0x05, 0xf4, 0xfb, 0x03, 0xf2, 0xff, 0x1e, 0x08, 0x03, 0x06, 0x0f, 0xf0,
  0x00, 0x03, 0x13, 0xf1, 0xf8, 0x01, 0xe4, 0x0b, 0xee, 0x06, 0x05, 0x03,
  0x02, 0x0e, 0x18, 0xe8, 0xfa, 0x06, 0x15, 0xfa, 0xfa, 0xfd, 0xff, 0x04,
  0xf1, 0x01, 0x11, 0xff, 0xfe, 0xfd, 0xfb, 0xeb, 0xef, 0x11, 0x29, 0xeb,
  0x02, 0xfa, 0x00, 0x01, 0xe8, 0xf8, 0x16, 0x0f, 0xfc, 0xeb, 0x05, 0x06,
  0xf0, 0x06, 0x25, 0xec, 0x00, 0xf4, 0xef, 0xf6, 0x02, 0x06, 0xf9, 0x10,
  0xf7, 0x11, 0x14, 0x0f, 0xfa, 0xec, 0x0d, 0xe7, 0x04, 0x04, 0xee, 0xf8,
  0x10, 0x0d, 0xe0, 0x11, 0x06, 0x0c, 0x19, 0x19, 0xf5, 0xef, 0x1f, 0xf3,
  0x0c, 0x00, 0xf9, 0xf4, 0x08, 0x0c, 0xf2, 0x0b, 0x02, 0x02, 0xfe, 0x1d,
  0xfa, 0xfd, 0x35, 0xfc, 0x0a, 0xfb, 0x05, 0xef, 0xf9, 0x13, 0x0a, 0xfb,
  0x01, 0xe6, 0xe7, 0x2e, 0xf6, 0xf9, 0x44, 0xf7, 0x06, 0x05, 0x10, 0xfc,
  0xf5, 0x0f, 0x19, 0xf5, 0x02, 0xe6, 0xe9, 0x2b, 0xf4, 0x01, 0x4e, 0xea,
  0x0c, 0x1c, 0x14, 0x03, 0xee, 0x02, 0x1e, 0xf9, 0x01, 0xcd, 0xf0, 0x1a,
  0x07, 0xf4, 0x4c, 0xd9, 0x1b, 0x20, 0x0d, 0x0e, 0xee, 0x0f, 0x2a, 0x02,
  0x03, 0xd3, 0x10, 0x2b, 0x13, 0xee, 0x28, 0xdd, 0x12, 0x23, 0xf8, 0x1c,
  0xe4, 0x0c, 0x2a, 0x11, 0xf7, 0xd0, 0x29, 0x23, 0x1e, 0xe8, 0x23, 0xcd,
  0x13, 0x26, 0xf1, 0x1a, 0xe9, 0x18, 0x25, 0x10, 0x01, 0xc6, 0x22, 0x2b,
  0x27, 0xdd, 0x22, 0xd9, 0x1f, 0x33, 0xd7, 0x19, 0xeb, 0x26, 0x28, 0x15,
  0x08, 0xc6, 0x23, 0x22, 0x35, 0xd3, 0x38, 0xf5, 0x28, 0x3b, 0xe2, 0x2a,
  0xd8, 0x14, 0x27, 0x21, 0x0e, 0xc5, 0x2e, 0x26, 0x3a, 0xdc, 0x30, 0xf8,
  0x22, 0x3b, 0xe7, 0x36, 0xfb, 0xfa, 0x05, 0x1a, 0x07, 0xf9, 0x02, 0xff,
  0x05, 0x01, 0xfb, 0xea, 0xf8, 0x07, 0xff, 0x0c, 0xf0, 0xf5, 0x04, 0x0f,
  0x04, 0xf9, 0xff, 0x06, 0x02, 0x00, 0xff, 0xee, 0xf7, 0x0f, 0x03, 0x16,
  0xf0, 0xf3, 0x02, 0x0f, 0x01, 0xf0, 0x0b, 0x07, 0x00, 0xf7, 0xf8, 0xfd,
  0x08, 0x05, 0xf8, 0x1f, 0xf5, 0xfd, 0xf9, 0x16, 0x01, 0xe6, 0x09, 0xf8,
  0x07, 0x00, 0xf7, 0xf0, 0x07, 0x0b, 0xfd, 0x2a, 0xea, 0xf4, 0x00, 0x0e,
  0xf7, 0xf6, 0x05, 0x03, 0xfd, 0x01, 0xf4, 0xf7, 0x02, 0x03, 0x10, 0x17,
  0xf9, 0xfd, 0x16, 0x0a, 0xfb, 0xea, 0x13, 0x0d, 0x08, 0x10, 0xf9, 0xf9,
  0xfe, 0xfb, 0xfc, 0x08, 0xe7, 0xf7, 0x13, 0x1b, 0x00, 0xe2, 0x0a, 0x03,
  0xfa, 0x0e, 0xf6, 0x02, 0xee, 0xfb, 0x0b, 0x13, 0x02, 0x08, 0x08, 0x07,
  0xf0, 0xe8, 0x0e, 0xff, 0x06, 0x0b, 0x07, 0x08, 0xf6, 0xf0, 0x00, 0x1c,
  0xfd, 0x03, 0xfe, 0x02, 0xf5, 0xe7, 0x0b, 0xeb, 0xfb, 0x04, 0x1e, 0x14,
  0xfb, 0xf7, 0xfe, 0x37, 0xf2, 0x11, 0x02, 0xec, 0xf3, 0xd9, 0x0b, 0xf3,
  0x07, 0xfd, 0x11, 0x0a, 0xf0, 0x04, 0xf7, 0x35, 0x06, 0x15, 0x03, 0xf6,
  0xe4, 0xeb, 0x03, 0xe4, 0x07, 0xfa, 0x0c, 0x04, 0xf1, 0x0c, 0xed, 0x33,
  0x0b, 0x1c, 0xf8, 0xdb, 0xdf, 0xf9, 0xf8, 0xe4, 0x08, 0xff, 0x0a, 0x02,
  0xf6, 0x0a, 0xf7, 0x26, 0x03, 0x19, 0xf9, 0xd3, 0xf9, 0xfa, 0x03, 0xdf,
  0x09, 0x15, 0x09, 0x0a, 0xf8, 0x07, 0xff, 0x23, 0x05, 0x1a, 0xf6, 0xcd,
  0xfb, 0x04, 0xfe, 0xea, 0x05, 0x28, 0x16, 0xf6, 0xf6, 0x05, 0x0c, 0x23,
  0xfc, 0x15, 0xf5, 0xd1, 0xfe, 0x11, 0xfb, 0xec, 0x0e, 0x1c, 0x10, 0xfd,
  0x01, 0xf3, 0x0e, 0x1e, 0xff, 0x23, 0x06, 0xc4, 0xf3, 0x15, 0xd5, 0xe9,
  0x01, 0x14, 0x15, 0xfc, 0xf6, 0xee, 0xef, 0x1a, 0xef, 0x2d, 0x05, 0xd4,
  0xfb, 0x1c, 0xd0, 0xdc, 0xfd, 0x0f, 0x18, 0xf2, 0xfc, 0x00, 0xe7, 0x0d,
  0x01, 0x35, 0x0d, 0xd2, 0x05, 0x27, 0xcf, 0xe1, 0xf9, 0xff, 0x21, 0xf6,
  0x0b, 0xfd, 0xef, 0x1d, 0xfb, 0x36, 0x24, 0xd6, 0x0f, 0x31, 0xd3, 0xf3,
  0xfb, 0x00, 0x2d, 0xfe, 0x0b, 0x0a, 0xf7, 0x18, 0x02, 0x2c, 0x30, 0xe1,
  0x24, 0x24, 0xcd, 0xf8, 0xf9, 0x04, 0x3b, 0x04, 0x11, 0x0a, 0xff, 0x1c,
  0xff, 0xf2, 0x27, 0xed, 0x0b, 0x06, 0xe7, 0x0b, 0x08, 0x08, 0x14, 0xf5,
  0xf8, 0xea, 0x06, 0xfd, 0xf6, 0xeb, 0x0d, 0xef, 0xfc, 0xf4, 0xf7, 0x02,
  0x07, 0x0c, 0x09, 0xec, 0xeb, 0xf8, 0x0c, 0xfd, 0xfc, 0xfe, 0x00, 0xfa,
  0x02, 0x05, 0xff, 0xff, 0x09, 0x06, 0xf0, 0xf8, 0xfb, 0xfc, 0x09, 0x0e,
  0xf1, 0xf8, 0x01, 0xfe, 0x07, 0xfe, 0x0d, 0x05, 0x00, 0x0a, 0xde, 0xfc,
  0xfd, 0x03, 0x0b, 0xf9, 0xf8, 0xfe, 0xf9, 0xfb, 0x03, 0x0e, 0xff, 0x04,
  0x04, 0x05, 0xd4, 0xfb, 0x06, 0x07, 0x00, 0xfe, 0xff, 0xfe, 0xed, 0xee,
  0xf5, 0x08, 0xfb, 0x0d, 0xff, 0x0d, 0xdc, 0xfd, 0x01, 0x05, 0x0a, 0x1c,
  0xf8, 0x07, 0xfd, 0xf5, 0xfe, 0xf6, 0xf7, 0x05, 0xfa, 0x0e, 0xeb, 0xf6,
  0xff, 0x07, 0x18, 0x14, 0xfc, 0x09, 0xfa, 0x09, 0xf9, 0xf9, 0xea, 0x00,
  0xf9, 0x0d, 0xd7, 0x05, 0x07, 0x17, 0x01, 0x1e, 0xff, 0x0e, 0x0e, 0xf6,
  0xfb, 0xf7, 0xe5, 0xf4, 0xee, 0x01, 0xda, 0xfc, 0x0e, 0x0b, 0xee, 0x1d,
  0xfe, 0x16, 0x0f, 0xf0, 0x02, 0x06, 0xef, 0xeb, 0xe6, 0xfd, 0xe2, 0xfa,
  0x0c, 0x22, 0xf2, 0x29, 0x08, 0x0d, 0xfe, 0xf6, 0x0d, 0x01, 0xf5, 0xf8,
  0xf6, 0x15, 0xed, 0x08, 0x12, 0x25, 0xfb, 0x13, 0xf6, 0x0c, 0xf6, 0x07,
  0x06, 0x09, 0xff, 0xfe, 0x0b, 0x18, 0xdc, 0xf5, 0x14, 0x21, 0xfc, 0x0a,
  0xf1, 0x11, 0xec, 0x16, 0x04, 0x05, 0x0a, 0x0b, 0x08, 0x05, 0xce, 0xf6,
  0x10, 0x20, 0xf6, 0x07, 0xf0, 0x04, 0xee, 0x24, 0x0c, 0x06, 0x15, 0x05,
  0x0c, 0xfa, 0xd5, 0x01, 0x08, 0x11, 0xee, 0x06, 0xef, 0x05, 0xe7, 0x27,
  0x0b, 0xff, 0x06, 0xfc, 0x08, 0xe9, 0xd9, 0x08, 0x00, 0x03, 0xfa, 0x08,
  0xf2, 0xf7, 0xe0, 0x28, 0x02, 0xf9, 0x07, 0x05, 0x01, 0xf3, 0xe2, 0x1b,
  0x0a, 0xfd, 0x02, 0x0f, 0xde, 0xf2, 0xe9, 0x2b, 0x0a, 0xdb, 0x0d, 0x11,
  0xfd, 0xde, 0xe2, 0x01, 0x0e, 0x00, 0xf7, 0xff, 0xbb, 0xd5, 0xf1, 0x39,
  0x0a, 0xce, 0x0f, 0x19, 0xfc, 0xe4, 0xcd, 0x06, 0x13, 0x0b, 0xed, 0x0c,
  0xbf, 0xd9, 0xe9, 0x40, 0xfe, 0xd5, 0x38, 0x15, 0xfc, 0xd8, 0xb4, 0xfa,
  0x18, 0x06, 0xd9, 0x12, 0xb8, 0xce, 0xe0, 0x4b, 0xf7, 0xd7, 0x43, 0x16,
  0xf8, 0xcc, 0xac, 0xf5, 0x21, 0x13, 0xcf, 0x27, 0x07, 0xe6, 0x00, 0x21,
  0x29, 0xfc, 0x04, 0x0e, 0x48, 0x20, 0xf9, 0x01, 0xb0, 0xe8, 0x0f, 0xdf,
  0x1c, 0xe1, 0xf8, 0x0e, 0x21, 0x05, 0x05, 0x0b, 0x25, 0x0a, 0xef, 0x09,
  0xc4, 0xd6, 0x0f, 0xf3, 0x0e, 0xdc, 0x02, 0x03, 0x0c, 0xfc, 0xfc, 0x04,
  0x1c, 0xfe, 0xe2, 0x05, 0xcf, 0xdc, 0xf7, 0xe9, 0x04, 0xef, 0x05, 0x00,
  0x16, 0x20, 0xfe, 0xff, 0x06, 0xfe, 0x00, 0x0b, 0xdf, 0xeb, 0xf5, 0xfe,
  0x09, 0xfa, 0xfd, 0x05, 0x05, 0x1b, 0xfb, 0x09, 0xfd, 0xf6, 0x01, 0x16,
  0xe5, 0xef, 0xf2, 0xf4, 0x15, 0x0a, 0xf2, 0xf9, 0x08, 0x1e, 0xf3, 0x00,
  0xf1, 0xf5, 0xff, 0x04, 0xed, 0xf2, 0xd7, 0x07, 0x03, 0x0a, 0xf2, 0x07,
  0x01, 0x22, 0xf0, 0x03, 0xf5, 0xef, 0x0b, 0x04, 0xea, 0xfd, 0xd9, 0x04,
  0xfb, 0x08, 0xf6, 0xf8, 0xfb, 0x21, 0xfb, 0xf1, 0xf7, 0xf2, 0x0a, 0x08,
  0xf8, 0xf1, 0xec, 0x0b, 0x06, 0x09, 0xf8, 0xf8, 0x00, 0x15, 0xf9, 0xfa,
  0xf9, 0x0c, 0x0d, 0x06, 0x01, 0xfa, 0x06, 0xfa, 0x02, 0x07, 0x0d, 0xed,
  0x0c, 0x00, 0xf7, 0xf6, 0xf7, 0x19, 0x1e, 0x0f, 0xf8, 0xff, 0x0e, 0x01,
  0x07, 0xfd, 0x16, 0xee, 0x0d, 0xf4, 0x04, 0xe9, 0xf7, 0x11, 0x1e, 0x0e,
  0xf9, 0xf7, 0xf2, 0xe8, 0x15, 0xf3, 0x1f, 0xef, 0x05, 0xf1, 0x09, 0xdb,
  0xf1, 0x04, 0x23, 0x05, 0xf4, 0xf5, 0x02, 0xf4, 0x1c, 0xfe, 0x1d, 0x04,
  0x02, 0xfb, 0x0f, 0xc8, 0xee, 0xf0, 0x26, 0x06, 0xf4, 0x01, 0xfa, 0xea,
  0x17, 0xfd, 0x25, 0xf4, 0x00, 0x02, 0x14, 0xda, 0xf4, 0xf1, 0x1e, 0x10,
  0xfe, 0x14, 0x04, 0xed, 0x20, 0xff, 0x0c, 0x02, 0x0b, 0xfd, 0x14, 0xef,
  0x0b, 0xe5, 0x29, 0x12, 0xfd, 0x06, 0x0f, 0xec, 0x0c, 0x00, 0x01, 0x02,
  0x08, 0x00, 0x1e, 0xf0, 0x0c, 0xef, 0x2a, 0x19, 0x00, 0x03, 0x01, 0xef,
  0x19, 0x0a, 0x0a, 0x07, 0x05, 0xf3, 0x1b, 0xe7, 0x0c, 0xe2, 0x40, 0x16,
  0xfb, 0x01, 0xfd, 0xe4, 0x15, 0x0f, 0x0d, 0xf7, 0x01, 0xe3, 0x13, 0xf1,
  0x07, 0xf5, 0x5b, 0x18, 0x0b, 0x04, 0xfc, 0xe9, 0x21, 0x0b, 0x18, 0xf0,
  0x12, 0xe2, 0x09, 0x08, 0xf9, 0x0b, 0x68, 0x1b, 0x04, 0xf9, 0x1f, 0xe2,
  0x2f, 0xf7, 0x18, 0xe0, 0x23, 0xe8, 0x03, 0x14, 0xf5, 0x2b, 0x7f, 0x12,
  0x01, 0xfb, 0x42, 0xce, 0x21, 0xc0, 0xe9, 0xf7, 0xfc, 0xf8, 0xfe, 0x06,
  0x0e, 0x15, 0x10, 0x11, 0xbb, 0xca, 0x0f, 0xf3, 0x13, 0xd2, 0xf7, 0xf0,
  0x0b, 0x12, 0xf9, 0x00, 0xfe, 0x1a, 0x06, 0x0c, 0xc3, 0xef, 0x15, 0xd5,
  0x20, 0xe3, 0xf6, 0x05, 0x09, 0x15, 0x01, 0x06, 0x08, 0x0d, 0x02, 0x15,
  0xdb, 0xe9, 0x03, 0xd4, 0x12, 0xd9, 0x04, 0x0d, 0x00, 0x0c, 0x09, 0x0d,
  0x16, 0x07, 0xea, 0x06, 0xe1, 0xf5, 0xfe, 0xd8, 0x03, 0xe4, 0xfc, 0x06,
  0xfd, 0x03, 0xfd, 0x0c, 0x19, 0xfe, 0xdc, 0x08, 0xf6, 0xf0, 0xfb, 0xda,
  0x08, 0xee, 0xea, 0x02, 0x02, 0x03, 0x12, 0x0d, 0x1b, 0xee, 0xeb, 0x10,
  0xf5, 0x05, 0xff, 0xec, 0x18, 0xef, 0xe5, 0xfa, 0xf9, 0x04, 0x0b, 0x19,
  0x1c, 0xf0, 0x01, 0x0a, 0xfc, 0xf9, 0x14, 0xe3, 0x20, 0xee, 0xea, 0xe5,
  0xfb, 0x10, 0xf8, 0x1c, 0x14, 0xe8, 0x07, 0xff, 0xff, 0xfc, 0x14, 0xe9,
  0x10, 0xf9, 0xe9, 0xed, 0x0a, 0x13, 0xec, 0x0b, 0x0a, 0xf8, 0xfc, 0xff,
  0x08, 0x02, 0x16, 0xe5, 0x04, 0x06, 0xf7, 0xe9, 0x0c, 0x07, 0xec, 0xfb,
  0xfb, 0x04, 0x0a, 0xf7, 0x10, 0xf9, 0xff, 0xfe, 0x07, 0x11, 0xfe, 0xf0,
  0x18, 0xfc, 0xf2, 0xfa, 0xf1, 0x00, 0x0a, 0x15, 0xfe, 0xfc, 0xee, 0xee,
  0x0d, 0x0a, 0x09, 0xfc, 0x1f, 0xed, 0xf4, 0x07, 0xef, 0xfc, 0x0a, 0x0f,
  0xfc, 0x02, 0x08, 0xfc, 0xf9, 0xfc, 0x03, 0x0b, 0x19, 0x01, 0xf6, 0x00,
  0xf3, 0x05, 0x09, 0x04, 0x02, 0x00, 0x00, 0xf8, 0x09, 0xf8, 0x01, 0x0a,
  0x10, 0x15, 0x13, 0xf4, 0xf4, 0xf7, 0xeb, 0xfb, 0x01, 0xff, 0x0a, 0xf7,
  0x13, 0xf9, 0xfe, 0x00, 0x11, 0x19, 0x15, 0xe3, 0xe7, 0xe6, 0xf3, 0x0f,
  0x07, 0xf7, 0x23, 0xf1, 0x0e, 0xf9, 0xff, 0xf2, 0x04, 0x13, 0x09, 0xd8,
  0xe3, 0xdd, 0x09, 0x10, 0x11, 0xf7, 0x2a, 0xec, 0x15, 0x06, 0xfc, 0xf6,
  0x0a, 0x10, 0x0d, 0xe4, 0xea, 0xe4, 0x0e, 0x15, 0x08, 0xf8, 0x43, 0xe9,
  0x06, 0xfc, 0xfb, 0xfa, 0x09, 0x06, 0x03, 0xeb, 0xf1, 0xea, 0x1d, 0x23,
  0xf7, 0xf6, 0x59, 0xec, 0x04, 0xfb, 0xfa, 0xfd, 0x19, 0x00, 0xfd, 0x06,
  0xff, 0xef, 0x19, 0x1d, 0xf1, 0xf8, 0x60, 0xe8, 0x1b, 0xf5, 0xf8, 0xf0,
  0x28, 0xff, 0x03, 0x06, 0x08, 0xfa, 0x1a, 0x20, 0xf8, 0x01, 0x64, 0xe8,
  0xfb, 0xfb, 0xf1, 0x0e, 0xeb, 0xfd, 0x0b, 0xf5, 0x00, 0xf0, 0xf5, 0xf9,
  0x21, 0x1e, 0xf4, 0x07, 0xf8, 0x07, 0xfc, 0x04, 0xf1, 0x01, 0x0f, 0xf9,
  0x01, 0xf5, 0xf0, 0xfa, 0x22, 0x0f, 0xfd, 0xfe, 0x07, 0x06, 0xff, 0x01,
  0xf2, 0x0f, 0x0d, 0xec, 0xff, 0xf6, 0xfc, 0xff, 0x15, 0x0b, 0x0d, 0x0b,
  0x04, 0x07, 0xfe, 0xf4, 0xf3, 0x09, 0x17, 0xf3, 0xf4, 0xfd, 0x1c, 0x03,
  0x08, 0x04, 0x0d, 0x11, 0x07, 0x06, 0x10, 0xf5, 0xf0, 0xef, 0x0e, 0xf4,
  0xee, 0xff, 0x14, 0xf9, 0x02, 0xfa, 0x18, 0x08, 0x06, 0x00, 0x25, 0xf6,
  0xee, 0xf9, 0x04, 0xed, 0xfa, 0x08, 0x15, 0x02, 0xfd, 0xfe, 0x11, 0x14,
  0x0a, 0x05, 0x16, 0xf8, 0xf3, 0xf4, 0x09, 0xe3, 0xf7, 0x02, 0x00, 0x00,
  0xf4, 0x01, 0x15, 0x10, 0x0b, 0x01, 0x01, 0xfa, 0xf3, 0x1b, 0x0c, 0xe7,
  0x00, 0xf9, 0xec, 0xfb, 0xfa, 0xff, 0x06, 0x11, 0x0a, 0x02, 0xf4, 0x11,
  0xf4, 0x24, 0x18, 0xf1, 0x02, 0xf5, 0xe2, 0x09, 0xfe, 0x02, 0xfa, 0x0c,
  0x16, 0x12, 0xf7, 0x06, 0xf1, 0x21, 0x06, 0x08, 0x05, 0xef, 0x02, 0x0e,
  0xfe, 0x0b, 0xf6, 0x02, 0x1f, 0x05, 0xfb, 0x00, 0xf4, 0x1b, 0xe9, 0x14,
  0x0b, 0xfa, 0xfd, 0x0f, 0x01, 0x03, 0xf5, 0x0c, 0x15, 0x00, 0xfe, 0x04,
  0xfb, 0x18, 0xf5, 0x11, 0x09, 0x04, 0x02, 0x07, 0x01, 0x07, 0xef, 0x08,
  0xf3, 0x01, 0xf3, 0x03, 0xf8, 0x0c, 0xe3, 0x21, 0xfa, 0xfc, 0x0b, 0xfa,
  0x04, 0x07, 0xf3, 0xfa, 0xec, 0xfb, 0xf5, 0x0a, 0x08, 0xf9, 0xe4, 0x0f,
  0xed, 0xf4, 0x13, 0xf9, 0xf7, 0x0b, 0xd9, 0xf3, 0xfb, 0xfc, 0xea, 0x0b,
  0xf6, 0xf0, 0xe4, 0x11, 0xf1, 0xea, 0x13, 0xf5, 0xfa, 0x0a, 0xdb, 0x02,
  0xf1, 0xe9, 0xea, 0xfc, 0xf2, 0xec, 0xe5, 0x06, 0xf0, 0xf0, 0x15, 0xe7,
  0xf9, 0x16, 0xe5, 0x0c, 0xf6, 0xe8, 0xee, 0x04, 0xeb, 0xee, 0xf5, 0x03,
  0xe9, 0xf9, 0x01, 0xe7, 0xf1, 0x15, 0xe0, 0x0b, 0xf2, 0xdd, 0xee, 0x03,
  0xeb, 0xf6, 0xf3, 0xf0, 0xee, 0x05, 0xf3, 0xdd, 0xeb, 0x06, 0xe0, 0x12,
  0xed, 0xe1, 0xee, 0xff, 0xde, 0xf6, 0x07, 0xfb, 0xf0, 0xfa, 0xea, 0xec,
  0xe7, 0xfa, 0xe6, 0x0c, 0xf8, 0xe0, 0xf0, 0xfa, 0xd3, 0xfa, 0x07, 0xed,
  0xed, 0xf6, 0xdf, 0xfa, 0xec, 0xf4, 0xe0, 0x1d, 0xfc, 0x2a, 0xf9, 0x31,
  0xe7, 0x12, 0x21, 0xf8, 0xe5, 0xec, 0xea, 0xfd, 0x30, 0x1b, 0xf2, 0xff,
  0xfc, 0x1d, 0xfd, 0x1d, 0xf7, 0xf1, 0x25, 0xf5, 0xf3, 0xf2, 0x08, 0xfe,
  0x20, 0x1d, 0xf8, 0x0f, 0x08, 0x0f, 0xfa, 0xff, 0xe9, 0xf3, 0x0c, 0x02,
  0x06, 0xf5, 0x11, 0x04, 0x17, 0x0a, 0x0e, 0xf7, 0x12, 0xfe, 0xf8, 0xe6,
  0xf0, 0xe5, 0x02, 0x0e, 0x1a, 0xfd, 0x1d, 0xff, 0x0e, 0x10, 0x16, 0xf7,
  0xfc, 0x05, 0x01, 0xe4, 0xf0, 0xf1, 0xf1, 0x13, 0x1c, 0x05, 0xf6, 0xf0,
  0x05, 0x05, 0x0f, 0xea, 0xf4, 0x02, 0xfd, 0xec, 0xf6, 0xef, 0xf9, 0x0a,
  0x1e, 0xff, 0xf4, 0xf5, 0x06, 0x0a, 0xfc, 0xf2, 0xe8, 0x0b, 0xfb, 0x0a,
  0xf8, 0xf5, 0x03, 0x1d, 0x16, 0x01, 0xe0, 0xe4, 0x0a, 0x06, 0xf7, 0xf6,
  0xdc, 0x06, 0x02, 0x00, 0x05, 0xf6, 0xfe, 0x15, 0x17, 0xf4, 0xf1, 0xe6,
  0x01, 0x03, 0xe0, 0xf0, 0xe6, 0xf4, 0x0c, 0xfe, 0x08, 0xe3, 0xdc, 0x0c,
  0x0e, 0xff, 0xef, 0x06, 0xf8, 0x08, 0xe1, 0x01, 0xda, 0xef, 0x1d, 0xf6,
  0xf2, 0xef, 0xdc, 0x0e, 0x0e, 0xf8, 0xe4, 0x11, 0xfa, 0xfd, 0xe2, 0x12,
  0xe3, 0xe0, 0x10, 0xff, 0x02, 0xfa, 0xee, 0x1a, 0x02, 0xfd, 0xd2, 0x0c,
  0xf4, 0xec, 0xf9, 0x1f, 0xf2, 0xe8, 0x08, 0x01, 0x03, 0x18, 0xfc, 0xfd,
  0xed, 0x01, 0xd3, 0x0b, 0xf5, 0xe5, 0xe9, 0x15, 0x0d, 0x03, 0x06, 0x02,
  0x0a, 0x15, 0xf9, 0x11, 0xe3, 0xeb, 0xd8, 0x18, 0xf9, 0xf7, 0xe9, 0x04,
  0x07, 0x15, 0xff, 0x05, 0x10, 0x0d, 0xf3, 0x1b, 0xd9, 0xf3, 0xfc, 0x01,
  0x07, 0xfd, 0xea, 0xf7, 0x15, 0x16, 0x02, 0x1e, 0x16, 0xff, 0xe1, 0x3e,
  0xe9, 0x02, 0x08, 0x04, 0xfa, 0xfb, 0xf6, 0xf4, 0x18, 0x0c, 0x01, 0x20,
  0x21, 0xfa, 0xcf, 0x59, 0xef, 0xf7, 0x04, 0x04, 0xfe, 0x07, 0xea, 0x03,
  0x1f, 0x0c, 0x0b, 0x13, 0x1e, 0xfc, 0xc4, 0x5d, 0xf6, 0x0c, 0xff, 0x0b,
  0xf3, 0x0a, 0xf0, 0xec, 0x27, 0x10, 0x01, 0x08, 0x18, 0x04, 0xac, 0x60,
  0xf4, 0x10, 0xe8, 0xfd, 0xf4, 0x0d, 0xf9, 0xfd, 0x1f, 0x16, 0xf5, 0x06,
  0x11, 0x0d, 0xa7, 0x3f, 0xee, 0x19, 0xcd, 0xfb, 0xde, 0x01, 0xe7, 0xf8,
  0x12, 0x0e, 0xf2, 0x0f, 0x0d, 0x16, 0xa0, 0x1b, 0xea, 0xff, 0xc2, 0xe5,
  0xe4, 0x06, 0xca, 0x0a, 0xe7, 0x2c, 0xff, 0xfa, 0xe8, 0x05, 0xf9, 0xf6,
  0xe4, 0xe8, 0x03, 0xf7, 0x44, 0x18, 0xe9, 0x17, 0xec, 0x27, 0x00, 0xfd,
  0xfc, 0x02, 0xf1, 0x00, 0xef, 0xf0, 0xfa, 0x02, 0x2a, 0x1a, 0xfa, 0x26,
  0xf3, 0x1e, 0x0c, 0x03, 0x02, 0x0c, 0xea, 0xf7, 0xf1, 0xfd, 0xfc, 0xf7,
  0x23, 0x0e, 0xf6, 0x20, 0xe8, 0x19, 0x1b, 0xff, 0x0d, 0x08, 0xf5, 0x05,
  0xf6, 0xff, 0xf5, 0x06, 0x0c, 0x0f, 0xf5, 0x1f, 0xf8, 0x16, 0x17, 0xfd,
  0x10, 0x11, 0xee, 0xfb, 0xff, 0x04, 0x19, 0x06, 0x0b, 0x06, 0x00, 0x17,
  0x06, 0x17, 0x0b, 0xe7, 0x0d, 0xfd, 0xec, 0xf9, 0x04, 0x06, 0x21, 0x01,
  0x05, 0x06, 0x0c, 0x1c, 0x05, 0x0b, 0x0e, 0xeb, 0x10, 0x18, 0xf4, 0x03,
  0x05, 0x11, 0x2c, 0xf7, 0x09, 0x0c, 0x26, 0x08, 0x1a, 0x05, 0xee, 0xe9,
  0x17, 0x1f, 0xf5, 0x12, 0x10, 0x0f, 0x0f, 0xee, 0x10, 0xff, 0x24, 0xf9,
  0xfd, 0x00, 0xe7, 0x06, 0x14, 0x23, 0xef, 0x03, 0x0f, 0x14, 0xf8, 0xeb,
  0x06, 0xf6, 0x0b, 0xf0, 0xfd, 0x0c, 0xe6, 0x0c, 0x0d, 0x0c, 0xf5, 0x08,
  0x13, 0x0a, 0xfc, 0x01, 0x03, 0xed, 0x07, 0xfd, 0xe1, 0x08, 0xea, 0x1f,
  0x09, 0xf1, 0xfc, 0xfc, 0x15, 0x09, 0x07, 0xfb, 0x07, 0xf6, 0xfd, 0xf3,
  0xe9, 0xf3, 0xfb, 0x1f, 0x0e, 0xe5, 0x0a, 0x0b, 0x21, 0x10, 0x09, 0xfb,
  0x02, 0xf3, 0x12, 0xf8, 0xfe, 0xea, 0x00, 0x16, 0x07, 0xe6, 0xf8, 0x18,
  0x23, 0x20, 0x00, 0x01, 0xff, 0xdf, 0x14, 0x06, 0xfe, 0xe5, 0x06, 0x0f,
  0x09, 0xf7, 0x10, 0x06, 0x1e, 0x2c, 0xef, 0x02, 0xf8, 0xcf, 0x0f, 0xfc,
  0x0a, 0xe8, 0x09, 0x0b, 0x08, 0xf8, 0x15, 0x15, 0x1d, 0x39, 0xe3, 0x02,
  0xff, 0xd0, 0x03, 0x08, 0x04, 0xe6, 0x0d, 0x03, 0x0b, 0x08, 0x10, 0x14,
  0x13, 0x2f, 0xd9, 0xfc, 0x01, 0xdc, 0x04, 0x0f, 0xfe, 0xec, 0x07, 0x06,
  0x0f, 0x0a, 0x0c, 0x16, 0xfd, 0x27, 0xec, 0x08, 0x00, 0xdf, 0x0b, 0x02,
  0x05, 0xe7, 0x09, 0xfc, 0x16, 0x05, 0x11, 0x04, 0xfc, 0x26, 0xe9, 0x0a,
  0xff, 0xeb, 0xfd, 0x07, 0xfa, 0xf2, 0x08, 0xf1, 0x0a, 0x09, 0x12, 0xfe,
  0xf4, 0x1d, 0xef, 0xfe, 0x05, 0xef, 0xed, 0x00, 0xfc, 0xea, 0x01, 0xf4,
  0x10, 0x17, 0x17, 0xeb, 0xea, 0x24, 0xec, 0xf6, 0x12, 0xf8, 0xf1, 0x0e,
  0xfb, 0x1a, 0xef, 0xe8, 0xe3, 0x04, 0xf2, 0xf6, 0xe5, 0xef, 0x0d, 0xfe,
  0x20, 0xf6, 0xf6, 0xf4, 0xf7, 0x17, 0xf4, 0xed, 0xf3, 0x08, 0xf7, 0xee,
  0xea, 0xf8, 0x14, 0xf7, 0x27, 0x12, 0xf7, 0x00, 0x01, 0x1f, 0xf3, 0xef,
  0xf1, 0xf8, 0xe9, 0xeb, 0xee, 0xf8, 0x18, 0x05, 0x15, 0x1d, 0xef, 0xff,
  0x00, 0x07, 0xf1, 0xfa, 0xff, 0xf6, 0xfa, 0xf7, 0xf2, 0xf7, 0x09, 0xf7,
  0x1a, 0x21, 0xe9, 0xf2, 0x0c, 0x08, 0xf1, 0x0a, 0xf6, 0xea, 0xf4, 0x02,
  0xfe, 0xfc, 0x09, 0x08, 0x15, 0x11, 0xf7, 0xec, 0x04, 0xff, 0xf2, 0x02,
  0xf5, 0xfc, 0xf6, 0xfb, 0xfd, 0x00, 0x00, 0x0d, 0x0e, 0x0b, 0xf6, 0xf0,
  0x03, 0xfa, 0x04, 0x01, 0xff, 0xea, 0xf4, 0xf7, 0xfb, 0x09, 0x13, 0x10,
  0x03, 0x12, 0xee, 0xdd, 0xfb, 0xf3, 0x16, 0xff, 0x03, 0xe1, 0xfb, 0x02,
  0x09, 0x02, 0xf6, 0x0d, 0x02, 0x10, 0xfe, 0xde, 0x00, 0xe1, 0x1d, 0x0b,
  0x03, 0xe3, 0x08, 0x0a, 0x0d, 0x01, 0xf5, 0x05, 0x04, 0x10, 0x17, 0xe3,
  0xf7, 0xe7, 0x15, 0xf8, 0x0a, 0xf4, 0x1a, 0x02, 0x0c, 0x0d, 0xea, 0x02,
  0xff, 0x03, 0x12, 0xe5, 0x08, 0xe0, 0x19, 0xf3, 0x12, 0xfd, 0x0d, 0x02,
  0x09, 0x0a, 0xe9, 0xf5, 0x08, 0xfa, 0x03, 0xe9, 0x02, 0xe7, 0x0a, 0xf6,
  0x09, 0x01, 0x0f, 0x02, 0x07, 0x11, 0xf5, 0xf0, 0xff, 0xf1, 0xfc, 0xdf,
  0xfe, 0xf0, 0x00, 0xec, 0x0b, 0x00, 0xf9, 0x04, 0xff, 0x1a, 0xf5, 0xf9,
  0xf7, 0xf3, 0xf5, 0xec, 0xe9, 0xf2, 0x0c, 0xf3, 0x05, 0xff, 0xf6, 0xff,
  0x04, 0x28, 0xf9, 0x09, 0xee, 0xfc, 0xe8, 0xfd, 0xee, 0xf4, 0x06, 0xec,
  0x01, 0xf4, 0xf6, 0x08, 0x10, 0x2a, 0xfc, 0xff, 0xf6, 0xfe, 0xf7, 0x0f,
  0x06, 0xf0, 0xff, 0xf0, 0x05, 0x00, 0x09, 0xfb, 0x11, 0x33, 0xf9, 0x02,
  0xee, 0xfc, 0xf0, 0x0a, 0x02, 0xfd, 0x09, 0xfd, 0x07, 0x04, 0x13, 0xee,
  0x18, 0x31, 0xef, 0xf7, 0xe2, 0xfc, 0xf5, 0x06, 0xfe, 0xfd, 0x02, 0xf3,
  0x03, 0x04, 0x16, 0xf6, 0x28, 0x2e, 0xdc, 0xfd, 0xdf, 0xf8, 0xee, 0x0c,
  0xf5, 0x01, 0xf9, 0xf7, 0x06, 0x08, 0x18, 0x0b, 0x22, 0x24, 0xd7, 0x0a,
  0xe0, 0xf0, 0xf5, 0x13, 0x00, 0x02, 0xf6, 0xfa, 0x15, 0x0a, 0x17, 0xff,
  0x23, 0x23, 0xd7, 0x01, 0xe2, 0xf1, 0xe5, 0x19, 0x0a, 0xff, 0xff, 0xff,
  0x04, 0x00, 0x00, 0x00, 0x28, 0x00, 0x00, 0x00, 0x16, 0xf5, 0xff, 0xff,
  0xaa, 0xf7, 0xff, 0xff, 0x48, 0xf9, 0xff, 0xff, 0xfc, 0xfb, 0xff, 0xff,
  0x4b, 0x0c, 0x00, 0x00, 0xc1, 0x0c, 0x00, 0x00, 0xc2, 0x00, 0x00, 0x00,
  0x15, 0x00, 0x00, 0x00, 0x24, 0xfa, 0xff, 0xff, 0xd5, 0x02, 0x00, 0x00,
  0x3e, 0xff, 0xff, 0xff, 0x04, 0x00, 0x00, 0x00, 0x08, 0x00, 0x00, 0x00,
  0xff, 0xff, 0xff, 0xff, 0x40, 0x01, 0x00, 0x00, 0x70, 0xf2, 0xff, 0xff,
  0x74, 0xf2, 0xff, 0xff, 0x0f, 0x00, 0x00, 0x00, 0x4d, 0x4c, 0x49, 0x52,
  0x20, 0x43, 0x6f, 0x6e, 0x76, 0x65, 0x72, 0x74, 0x65, 0x64, 0x2e, 0x00,
  0x01, 0x00, 0x00, 0x00, 0x14, 0x00, 0x00, 0x00, 0x00, 0x00, 0x0e, 0x00,
  0x18, 0x00, 0x14, 0x00, 0x10, 0x00, 0x0c, 0x00, 0x08, 0x00, 0x04, 0x00,
  0x0e, 0x00, 0x00, 0x00, 0x14, 0x00, 0x00, 0x00, 0x1c, 0x00, 0x00, 0x00,
  0xf4, 0x01, 0x00, 0x00, 0xf8, 0x01, 0x00, 0x00, 0xfc, 0x01, 0x00, 0x00,
  0x04, 0x00, 0x00, 0x00, 0x6d, 0x61, 0x69, 0x6e, 0x00, 0x00, 0x00, 0x00,
  0x06, 0x00, 0x00, 0x00, 0xbc, 0x01, 0x00, 0x00, 0xf8, 0x00, 0x00, 0x00,
  0xb8, 0x00, 0x00, 0x00, 0x74, 0x00, 0x00, 0x00, 0x28, 0x00, 0x00, 0x00,
  0x04, 0x00, 0x00, 0x00, 0x62, 0xff, 0xff, 0xff, 0x0c, 0x00, 0x00, 0x00,
  0x10, 0x00, 0x00, 0x00, 0x05, 0x00, 0x00, 0x00, 0x01, 0x00, 0x00, 0x00,
  0x1c, 0x00, 0x00, 0x00, 0x01, 0x00, 0x00, 0x00, 0x1b, 0x00, 0x00, 0x00,
  0xc6, 0xff, 0xff, 0xff, 0x1c, 0x00, 0x00, 0x00, 0x00, 0x00, 0x00, 0x09,
  0x1c, 0x00, 0x00, 0x00, 0x20, 0x00, 0x00, 0x00, 0x04, 0x00, 0x00, 0x00,
  0x00, 0x00, 0x06, 0x00, 0x08, 0x00, 0x04, 0x00, 0x06, 0x00, 0x00, 0x00,
  0x00, 0x00, 0x80, 0x3f, 0x01, 0x00, 0x00, 0x00, 0x1b, 0x00, 0x00, 0x00,
  0x01, 0x00, 0x00, 0x00, 0x1a, 0x00, 0x00, 0x00, 0x00, 0x00, 0x0e, 0x00,
  0x18, 0x00, 0x14, 0x00, 0x10, 0x00, 0x0c, 0x00, 0x0b, 0x00, 0x04, 0x00,
  0x0e, 0x00, 0x00, 0x00, 0x14, 0x00, 0x00, 0x00, 0x00, 0x00, 0x00, 0x08,
  0x10, 0x00, 0x00, 0x00, 0x14, 0x00, 0x00, 0x00, 0x03, 0x00, 0x00, 0x00,
  0x64, 0xf3, 0xff, 0xff, 0x01, 0x00, 0x00, 0x00, 0x1a, 0x00, 0x00, 0x00,
  0x03, 0x00, 0x00, 0x00, 0x19, 0x00, 0x00, 0x00, 0x03, 0x00, 0x00, 0x00,
  0x02, 0x00, 0x00, 0x00, 0x00, 0x00, 0x0a, 0x00, 0x10, 0x00, 0x0c, 0x00,
  0x08, 0x00, 0x04, 0x00, 0x0a, 0x00, 0x00, 0x00, 0x0c, 0x00, 0x00, 0x00,
  0x10, 0x00, 0x00, 0x00, 0x02, 0x00, 0x00, 0x00, 0x01, 0x00, 0x00, 0x00,
  0x19, 0x00, 0x00, 0x00, 0x02, 0x00, 0x00, 0x00, 0x18, 0x00, 0x00, 0x00,
  0x01, 0x00, 0x00, 0x00, 0x00, 0x00, 0x16, 0x00, 0x1c, 0x00, 0x18, 0x00,
  0x14, 0x00, 0x10, 0x00, 0x0f, 0x00, 0x08, 0x00, 0x00, 0x00, 0x00, 0x00,
  0x00, 0x00, 0x04, 0x00, 0x16, 0x00, 0x00, 0x00, 0x18, 0x00, 0x00, 0x00,
  0x34, 0x00, 0x00, 0x00, 0x00, 0x00, 0x00, 0x47, 0x38, 0x00, 0x00, 0x00,
  0x3c, 0x00, 0x00, 0x00, 0x01, 0x00, 0x00, 0x00, 0x05, 0x00, 0x00, 0x00,
  0x13, 0x00, 0x00, 0x00, 0x14, 0x00, 0x00, 0x00, 0x15, 0x00, 0x00, 0x00,
  0x16, 0x00, 0x00, 0x00, 0x17, 0x00, 0x00, 0x00, 0x08, 0x00, 0x0c, 0x00,
  0x0b, 0x00, 0x04, 0x00, 0x08, 0x00, 0x00, 0x00, 0x00, 0x00, 0x20, 0x41,
  0x00, 0x00, 0x00, 0x04, 0x01, 0x00, 0x00, 0x00, 0x18, 0x00, 0x00, 0x00,
  0x18, 0x00, 0x00, 0x00, 0x10, 0x00, 0x00, 0x00, 0x0f, 0x00, 0x00, 0x00,
  0x0e, 0x00, 0x00, 0x00, 0x0d, 0x00, 0x00, 0x00, 0x0c, 0x00, 0x00, 0x00,
  0x0b, 0x00, 0x00, 0x00, 0x0a, 0x00, 0x00, 0x00, 0x09, 0x00, 0x00, 0x00,
  0x08, 0x00, 0x00, 0x00, 0xff, 0xff, 0xff, 0xff, 0xff, 0xff, 0xff, 0xff,
  0xff, 0xff, 0xff, 0xff, 0x07, 0x00, 0x00, 0x00, 0x06, 0x00, 0x00, 0x00,
  0x05, 0x00, 0x00, 0x00, 0x04, 0x00, 0x00, 0x00, 0xff, 0xff, 0xff, 0xff,
  0xff, 0xff, 0xff, 0xff, 0x11, 0x00, 0x00, 0x00, 0x12, 0x00, 0x00, 0x00,
  0xff, 0xff, 0xff, 0xff, 0xff, 0xff, 0xff, 0xff, 0xff, 0xff, 0xff, 0xff,
  0xff, 0xff, 0xff, 0xff, 0x00, 0x00, 0x0a, 0x00, 0x0c, 0x00, 0x00, 0x00,
  0x08, 0x00, 0x04, 0x00, 0x0a, 0x00, 0x00, 0x00, 0x08, 0x00, 0x00, 0x00,
  0x0c, 0x00, 0x00, 0x00, 0x01, 0x00, 0x00, 0x00, 0x10, 0x00, 0x00, 0x00,
  0x01, 0x00, 0x00, 0x00, 0x00, 0x00, 0x00, 0x00, 0x01, 0x00, 0x00, 0x00,
  0x1c, 0x00, 0x00, 0x00, 0x01, 0x00, 0x00, 0x00, 0x00, 0x00, 0x00, 0x00,
  0x1d, 0x00, 0x00, 0x00, 0x30, 0x0b, 0x00, 0x00, 0xc8, 0x0a, 0x00, 0x00,
  0x20, 0x0a, 0x00, 0x00, 0xa8, 0x09, 0x00, 0x00, 0x4c, 0x09, 0x00, 0x00,
  0xf0, 0x08, 0x00, 0x00, 0x94, 0x08, 0x00, 0x00, 0x38, 0x08, 0x00, 0x00,
  0xd4, 0x07, 0x00, 0x00, 0x70, 0x07, 0x00, 0x00, 0x0c, 0x07, 0x00, 0x00,
  0xa8, 0x06, 0x00, 0x00, 0x44, 0x06, 0x00, 0x00, 0xe0, 0x05, 0x00, 0x00,
  0x7c, 0x05, 0x00, 0x00, 0x18, 0x05, 0x00, 0x00, 0xb4, 0x04, 0x00, 0x00,
  0x54, 0x04, 0x00, 0x00, 0xd8, 0x03, 0x00, 0x00, 0x9c, 0x03, 0x00, 0x00,
  0x44, 0x03, 0x00, 0x00, 0x08, 0x03, 0x00, 0x00, 0xc8, 0x02, 0x00, 0x00,
  0x5c, 0x02, 0x00, 0x00, 0xcc, 0x01, 0x00, 0x00, 0x58, 0x01, 0x00, 0x00,
  0xbc, 0x00, 0x00, 0x00, 0x50, 0x00, 0x00, 0x00, 0x04, 0x00, 0x00, 0x00,
  0x5a, 0xf5, 0xff, 0xff, 0x00, 0x00, 0x00, 0x01, 0x10, 0x00, 0x00, 0x00,
  0x10, 0x00, 0x00, 0x00, 0x18, 0x00, 0x00, 0x00, 0x28, 0x00, 0x00, 0x00,
  0x44, 0xf5, 0xff, 0xff, 0x19, 0x00, 0x00, 0x00, 0x53, 0x74, 0x61, 0x74,
  0x65, 0x66, 0x75, 0x6c, 0x50, 0x61, 0x72, 0x74, 0x69, 0x74, 0x69, 0x6f,
  0x6e, 0x65, 0x64, 0x43, 0x61, 0x6c, 0x6c, 0x3a, 0x30, 0x00, 0x00, 0x00,
  0x02, 0x00, 0x00, 0x00, 0x01, 0x00, 0x00, 0x00, 0x0a, 0x00, 0x00, 0x00,
  0x06, 0xf6, 0xff, 0xff, 0x00, 0x00, 0x00, 0x01, 0x14, 0x00, 0x00, 0x00,
  0x30, 0x00, 0x00, 0x00, 0x17, 0x00, 0x00, 0x00, 0x00, 0x00, 0x00, 0x09,
  0x44, 0x00, 0x00, 0x00, 0x94, 0xf6, 0xff, 0xff, 0x08, 0x00, 0x00, 0x00,
  0x10, 0x00, 0x00, 0x00, 0x01, 0x00, 0x00, 0x00, 0x80, 0xff, 0xff, 0xff,
  0xff, 0xff, 0xff, 0xff, 0x01, 0x00, 0x00, 0x00, 0x00, 0x00, 0x80, 0x3b,
  0x1a, 0x00, 0x00, 0x00, 0x53, 0x74, 0x61, 0x74, 0x65, 0x66, 0x75, 0x6c,
  0x50, 0x61, 0x72, 0x74, 0x69, 0x74, 0x69, 0x6f, 0x6e, 0x65, 0x64, 0x43,
  0x61, 0x6c, 0x6c, 0x3a, 0x30, 0x31, 0x00, 0x00, 0x02, 0x00, 0x00, 0x00,
  0x01, 0x00, 0x00, 0x00, 0x0a, 0x00, 0x00, 0x00, 0x6e, 0xf6, 0xff, 0xff,
  0x00, 0x00, 0x00, 0x01, 0x14, 0x00, 0x00, 0x00, 0x34, 0x00, 0x00, 0x00,
  0x16, 0x00, 0x00, 0x00, 0x00, 0x00, 0x00, 0x09, 0x74, 0x00, 0x00, 0x00,
  0xfc, 0xf6, 0xff, 0xff, 0x08, 0x00, 0x00, 0x00, 0x14, 0x00, 0x00, 0x00,
  0x01, 0x00, 0x00, 0x00, 0x10, 0x00, 0x00, 0x00, 0x00, 0x00, 0x00, 0x00,
  0x00, 0x00, 0x00, 0x00, 0x01, 0x00, 0x00, 0x00, 0xdf, 0x18, 0x37, 0x3e,
  0x44, 0x00, 0x00, 0x00, 0x4c, 0x53, 0x54, 0x4d, 0x5f, 0x53, 0x74, 0x61,
  0x74, 0x65, 0x6c, 0x65, 0x73, 0x73, 0x2f, 0x70, 0x72, 0x65, 0x64, 0x69,
  0x63, 0x74, 0x69, 0x6f, 0x6e, 0x73, 0x2f, 0x4d, 0x61, 0x74, 0x4d, 0x75,
  0x6c, 0x3b, 0x4c, 0x53, 0x54, 0x4d, 0x5f, 0x53, 0x74, 0x61, 0x74, 0x65,
  0x6c, 0x65, 0x73, 0x73, 0x2f, 0x70, 0x72, 0x65, 0x64, 0x69, 0x63, 0x74,
  0x69, 0x6f, 0x6e, 0x73, 0x2f, 0x42, 0x69, 0x61, 0x73, 0x41, 0x64, 0x64,
  0x00, 0x00, 0x00, 0x00, 0x02, 0x00, 0x00, 0x00, 0x01, 0x00, 0x00, 0x00,
  0x0a, 0x00, 0x00, 0x00, 0x06, 0xf7, 0xff, 0xff, 0x00, 0x00, 0x00, 0x01,
  0x14, 0x00, 0x00, 0x00, 0x30, 0x00, 0x00, 0x00, 0x15, 0x00, 0x00, 0x00,
  0x00, 0x00, 0x00, 0x09, 0x4c, 0x00, 0x00, 0x00, 0x94, 0xf7, 0xff, 0xff,
  0x08, 0x00, 0x00, 0x00, 0x10, 0x00, 0x00, 0x00, 0x01, 0x00, 0x00, 0x00,
  0xff, 0xff, 0xff, 0xff, 0xff, 0xff, 0xff, 0xff, 0x01, 0x00, 0x00, 0x00,
  0xa3, 0x6a, 0x00, 0x3c, 0x20, 0x00, 0x00, 0x00, 0x4c, 0x53, 0x54, 0x4d,
  0x5f, 0x53, 0x74, 0x61, 0x74, 0x65, 0x6c, 0x65, 0x73, 0x73, 0x2f, 0x66,
  0x6c, 0x61, 0x74, 0x74, 0x65, 0x6e, 0x5f, 0x36, 0x2f, 0x52, 0x65, 0x73,
  0x68, 0x61, 0x70, 0x65, 0x00, 0x00, 0x00, 0x00, 0x02, 0x00, 0x00, 0x00,
  0x01, 0x00, 0x00, 0x00, 0x40, 0x01, 0x00, 0x00, 0x76, 0xf7, 0xff, 0xff,
  0x00, 0x00, 0x00, 0x01, 0x14, 0x00, 0x00, 0x00, 0x30, 0x00, 0x00, 0x00,
  0x14, 0x00, 0x00, 0x00, 0x00, 0x00, 0x00, 0x09, 0x4c, 0x00, 0x00, 0x00,
  0x04, 0xf8, 0xff, 0xff, 0x08, 0x00, 0x00, 0x00, 0x10, 0x00, 0x00, 0x00,
  0x01, 0x00, 0x00, 0x00, 0xff, 0xff, 0xff, 0xff, 0xff, 0xff, 0xff, 0xff,
  0x01, 0x00, 0x00, 0x00, 0xa3, 0x6a, 0x00, 0x3c, 0x20, 0x00, 0x00, 0x00,
  0x74, 0x66, 0x6c, 0x2e, 0x75, 0x6e, 0x69, 0x64, 0x69, 0x72, 0x65, 0x63,
  0x74, 0x69, 0x6f, 0x6e, 0x61, 0x6c, 0x5f, 0x73, 0x65, 0x71, 0x75, 0x65,
  0x6e, 0x63, 0x65, 0x5f, 0x6c, 0x73, 0x74, 0x6d, 0x00, 0x00, 0x00, 0x00,
  0x03, 0x00, 0x00, 0x00, 0x01, 0x00, 0x00, 0x00, 0x14, 0x00, 0x00, 0x00,
  0x10, 0x00, 0x00, 0x00, 0x00, 0x00, 0x16, 0x00, 0x18, 0x00, 0x14, 0x00,
  0x13, 0x00, 0x00, 0x00, 0x0c, 0x00, 0x08, 0x00, 0x00, 0x00, 0x00, 0x00,
  0x00, 0x00, 0x07, 0x00, 0x16, 0x00, 0x00, 0x00, 0x00, 0x00, 0x00, 0x01,
  0x10, 0x00, 0x00, 0x00, 0x2c, 0x00, 0x00, 0x00, 0x00, 0x00, 0x00, 0x09,
  0x4c, 0x00, 0x00, 0x00, 0x8c, 0xf8, 0xff, 0xff, 0x08, 0x00, 0x00, 0x00,
  0x10, 0x00, 0x00, 0x00, 0x01, 0x00, 0x00, 0x00, 0xff, 0xff, 0xff, 0xff,
  0xff, 0xff, 0xff, 0xff, 0x01, 0x00, 0x00, 0x00, 0xa3, 0x6a, 0x00, 0x3c,
  0x23, 0x00, 0x00, 0x00, 0x65, 0x66, 0x66, 0x65, 0x63, 0x74, 0x69, 0x76,
  0x65, 0x5f, 0x68, 0x69, 0x64, 0x64, 0x65, 0x6e, 0x5f, 0x73, 0x63, 0x61,
  0x6c, 0x65, 0x5f, 0x69, 0x6e, 0x74, 0x65, 0x72, 0x6d, 0x65, 0x64, 0x69,
  0x61, 0x74, 0x65, 0x00, 0x01, 0x00, 0x00, 0x00, 0x00, 0x00, 0x00, 0x00,
  0x4e, 0xff, 0xff, 0xff, 0x00, 0x00, 0x00, 0x01, 0x08, 0x00, 0x00, 0x00,
  0x28, 0x00, 0x00, 0x00, 0x1c, 0x00, 0x00, 0x00, 0x69, 0x6e, 0x70, 0x75,
  0x74, 0x5f, 0x74, 0x6f, 0x5f, 0x6f, 0x75, 0x74, 0x70, 0x75, 0x74, 0x5f,
  0x69, 0x6e, 0x74, 0x65, 0x72, 0x6d, 0x65, 0x64, 0x69, 0x61, 0x74, 0x65,
  0x00, 0x00, 0x00, 0x00, 0x01, 0x00, 0x00, 0x00, 0x00, 0x00, 0x00, 0x00,
  0x8a, 0xff, 0xff, 0xff, 0x00, 0x00, 0x00, 0x01, 0x08, 0x00, 0x00, 0x00,
  0x24, 0x00, 0x00, 0x00, 0x1a, 0x00, 0x00, 0x00, 0x69, 0x6e, 0x70, 0x75,
  0x74, 0x5f, 0x74, 0x6f, 0x5f, 0x63, 0x65, 0x6c, 0x6c, 0x5f, 0x69, 0x6e,
  0x74, 0x65, 0x72, 0x6d, 0x65, 0x64, 0x69, 0x61, 0x74, 0x65, 0x00, 0x00,
  0x01, 0x00, 0x00, 0x00, 0x00, 0x00, 0x00, 0x00, 0xc2, 0xff, 0xff, 0xff,
  0x00, 0x00, 0x00, 0x01, 0x08, 0x00, 0x00, 0x00, 0x28, 0x00, 0x00, 0x00,
  0x1c, 0x00, 0x00, 0x00, 0x69, 0x6e, 0x70, 0x75, 0x74, 0x5f, 0x74, 0x6f,
  0x5f, 0x66, 0x6f, 0x72, 0x67, 0x65, 0x74, 0x5f, 0x69, 0x6e, 0x74, 0x65,
  0x72, 0x6d, 0x65, 0x64, 0x69, 0x61, 0x74, 0x65, 0x00, 0x00, 0x00, 0x00,
  0x01, 0x00, 0x00, 0x00, 0x00, 0x00, 0x00, 0x00, 0x00, 0x00, 0x16, 0x00,
  0x10, 0x00, 0x0c, 0x00, 0x00, 0x00, 0x00, 0x00, 0x08, 0x00, 0x00, 0x00,
  0x00, 0x00, 0x00, 0x00, 0x00, 0x00, 0x07, 0x00, 0x16, 0x00, 0x00, 0x00,
  0x00, 0x00, 0x00, 0x01, 0x08, 0x00, 0x00, 0x00, 0x24, 0x00, 0x00, 0x00,
  0x1b, 0x00, 0x00, 0x00, 0x69, 0x6e, 0x70, 0x75, 0x74, 0x5f, 0x74, 0x6f,
  0x5f, 0x69, 0x6e, 0x70, 0x75, 0x74, 0x5f, 0x69, 0x6e, 0x74, 0x65, 0x72,
  0x6d, 0x65, 0x64, 0x69, 0x61, 0x74, 0x65, 0x00, 0x01, 0x00, 0x00, 0x00,
  0x00, 0x00, 0x00, 0x00, 0x9e, 0xff, 0xff, 0xff, 0x00, 0x00, 0x01, 0x01,
  0x10, 0x00, 0x00, 0x00, 0x30, 0x00, 0x00, 0x00, 0x00, 0x00, 0x00, 0x07,
  0x40, 0x00, 0x00, 0x00, 0xf4, 0xf9, 0xff, 0xff, 0x08, 0x00, 0x00, 0x00,
  0x14, 0x00, 0x00, 0x00, 0x01, 0x00, 0x00, 0x00, 0x00, 0x00, 0x00, 0x00,
  0x00, 0x00, 0x00, 0x00, 0x00, 0x00, 0x00, 0x00, 0x01, 0x00, 0x00, 0x00,
  0x00, 0x00, 0x00, 0x3a, 0x12, 0x00, 0x00, 0x00, 0x74, 0x66, 0x6c, 0x2e,
  0x70, 0x73, 0x65, 0x75, 0x64, 0x6f, 0x5f, 0x71, 0x63, 0x6f, 0x6e, 0x73,
  0x74, 0x31, 0x00, 0x00, 0x02, 0x00, 0x00, 0x00, 0x01, 0x00, 0x00, 0x00,
  0x10, 0x00, 0x00, 0x00, 0x00, 0x00, 0x16, 0x00, 0x18, 0x00, 0x14, 0x00,
  0x13, 0x00, 0x00, 0x00, 0x0c, 0x00, 0x08, 0x00, 0x07, 0x00, 0x00, 0x00,
  0x00, 0x00, 0x06, 0x00, 0x16, 0x00, 0x00, 0x00, 0x00, 0x00, 0x01, 0x01,
  0x10, 0x00, 0x00, 0x00, 0x2c, 0x00, 0x00, 0x00, 0x00, 0x00, 0x00, 0x09,
  0x3c, 0x00, 0x00, 0x00, 0x6c, 0xfa, 0xff, 0xff, 0x08, 0x00, 0x00, 0x00,
  0x10, 0x00, 0x00, 0x00, 0x01, 0x00, 0x00, 0x00, 0xff, 0xff, 0xff, 0xff,
  0xff, 0xff, 0xff, 0xff, 0x01, 0x00, 0x00, 0x00, 0xa3, 0x6a, 0x00, 0x3c,
  0x11, 0x00, 0x00, 0x00, 0x74, 0x66, 0x6c, 0x2e, 0x70, 0x73, 0x65, 0x75,
  0x64, 0x6f, 0x5f, 0x71, 0x63, 0x6f, 0x6e, 0x73, 0x74, 0x00, 0x00, 0x00,
  0x02, 0x00, 0x00, 0x00, 0x01, 0x00, 0x00, 0x00, 0x10, 0x00, 0x00, 0x00,
  0x3e, 0xfa, 0xff, 0xff, 0x00, 0x00, 0x00, 0x01, 0x14, 0x00, 0x00, 0x00,
  0x30, 0x00, 0x00, 0x00, 0x11, 0x00, 0x00, 0x00, 0x00, 0x00, 0x00, 0x09,
  0x38, 0x00, 0x00, 0x00, 0xcc, 0xfa, 0xff, 0xff, 0x08, 0x00, 0x00, 0x00,
  0x10, 0x00, 0x00, 0x00, 0x01, 0x00, 0x00, 0x00, 0x80, 0xff, 0xff, 0xff,
  0xff, 0xff, 0xff, 0xff, 0x01, 0x00, 0x00, 0x00, 0x81, 0x80, 0x80, 0x3b,
  0x0c, 0x00, 0x00, 0x00, 0x74, 0x66, 0x6c, 0x2e, 0x71, 0x75, 0x61, 0x6e,
  0x74, 0x69, 0x7a, 0x65, 0x00, 0x00, 0x00, 0x00, 0x03, 0x00, 0x00, 0x00,
  0x01, 0x00, 0x00, 0x00, 0x14, 0x00, 0x00, 0x00, 0x0f, 0x00, 0x00, 0x00,
  0x9e, 0xfa, 0xff, 0xff, 0x00, 0x00, 0x00, 0x01, 0x14, 0x00, 0x00, 0x00,
  0x34, 0x00, 0x00, 0x00, 0x10, 0x00, 0x00, 0x00, 0x00, 0x00, 0x00, 0x09,
  0x3c, 0x00, 0x00, 0x00, 0x2c, 0xfb, 0xff, 0xff, 0x08, 0x00, 0x00, 0x00,
  0x14, 0x00, 0x00, 0x00, 0x01, 0x00, 0x00, 0x00, 0x00, 0x00, 0x00, 0x00,
  0x00, 0x00, 0x00, 0x00, 0x00, 0x00, 0x00, 0x00, 0x01, 0x00, 0x00, 0x00,
  0xc3, 0x12, 0x04, 0x3c, 0x0f, 0x00, 0x00, 0x00, 0x61, 0x72, 0x69, 0x74,
  0x68, 0x2e, 0x63, 0x6f, 0x6e, 0x73, 0x74, 0x61, 0x6e, 0x74, 0x38, 0x00,
  0x02, 0x00, 0x00, 0x00, 0x10, 0x00, 0x00, 0x00, 0x0f, 0x00, 0x00, 0x00,
  0xfe, 0xfa, 0xff, 0xff, 0x00, 0x00, 0x00, 0x01, 0x14, 0x00, 0x00, 0x00,
  0x34, 0x00, 0x00, 0x00, 0x0f, 0x00, 0x00, 0x00, 0x00, 0x00, 0x00, 0x09,
  0x3c, 0x00, 0x00, 0x00, 0x8c, 0xfb, 0xff, 0xff, 0x08, 0x00, 0x00, 0x00,
  0x14, 0x00, 0x00, 0x00, 0x01, 0x00, 0x00, 0x00, 0x00, 0x00, 0x00, 0x00,
  0x00, 0x00, 0x00, 0x00, 0x00, 0x00, 0x00, 0x00, 0x01, 0x00, 0x00, 0x00,
  0x7a, 0xd2, 0xb0, 0x3b, 0x0f, 0x00, 0x00, 0x00, 0x61, 0x72, 0x69, 0x74,
  0x68, 0x2e, 0x63, 0x6f, 0x6e, 0x73, 0x74, 0x61, 0x6e, 0x74, 0x39, 0x00,
  0x02, 0x00, 0x00, 0x00, 0x10, 0x00, 0x00, 0x00, 0x0f, 0x00, 0x00, 0x00,
  0x5e, 0xfb, 0xff, 0xff, 0x00, 0x00, 0x00, 0x01, 0x14, 0x00, 0x00, 0x00,
  0x30, 0x00, 0x00, 0x00, 0x0e, 0x00, 0x00, 0x00, 0x00, 0x00, 0x00, 0x09,
  0x3c, 0x00, 0x00, 0x00, 0xec, 0xfb, 0xff, 0xff, 0x08, 0x00, 0x00, 0x00,
  0x10, 0x00, 0x00, 0x00, 0x01, 0x00, 0x00, 0x00, 0x00, 0x00, 0x00, 0x00,
  0x00, 0x00, 0x00, 0x00, 0x01, 0x00, 0x00, 0x00, 0x25, 0x95, 0xbd, 0x3b,
  0x10, 0x00, 0x00, 0x00, 0x61, 0x72, 0x69, 0x74, 0x68, 0x2e, 0x63, 0x6f,
  0x6e, 0x73, 0x74, 0x61, 0x6e, 0x74, 0x31, 0x30, 0x00, 0x00, 0x00, 0x00,
  0x02, 0x00, 0x00, 0x00, 0x10, 0x00, 0x00, 0x00, 0x0f, 0x00, 0x00, 0x00,
  0xbe, 0xfb, 0xff, 0xff, 0x00, 0x00, 0x00, 0x01, 0x14, 0x00, 0x00, 0x00,
  0x30, 0x00, 0x00, 0x00, 0x0d, 0x00, 0x00, 0x00, 0x00, 0x00, 0x00, 0x09,
  0x3c, 0x00, 0x00, 0x00, 0x4c, 0xfc, 0xff, 0xff, 0x08, 0x00, 0x00, 0x00,
  0x10, 0x00, 0x00, 0x00, 0x01, 0x00, 0x00, 0x00, 0x00, 0x00, 0x00, 0x00,
  0x00, 0x00, 0x00, 0x00, 0x01, 0x00, 0x00, 0x00, 0x0c, 0xd3, 0x14, 0x3c,
  0x10, 0x00, 0x00, 0x00, 0x61, 0x72, 0x69, 0x74, 0x68, 0x2e, 0x63, 0x6f,
  0x6e, 0x73, 0x74, 0x61, 0x6e, 0x74, 0x31, 0x31, 0x00, 0x00, 0x00, 0x00,
  0x02, 0x00, 0x00, 0x00, 0x10, 0x00, 0x00, 0x00, 0x0f, 0x00, 0x00, 0x00,
  0x1e, 0xfc, 0xff, 0xff, 0x00, 0x00, 0x00, 0x01, 0x14, 0x00, 0x00, 0x00,
  0x34, 0x00, 0x00, 0x00, 0x0c, 0x00, 0x00, 0x00, 0x00, 0x00, 0x00, 0x09,
  0x3c, 0x00, 0x00, 0x00, 0xac, 0xfc, 0xff, 0xff, 0x08, 0x00, 0x00, 0x00,
  0x14, 0x00, 0x00, 0x00, 0x01, 0x00, 0x00, 0x00, 0x00, 0x00, 0x00, 0x00,
  0x00, 0x00, 0x00, 0x00, 0x00, 0x00, 0x00, 0x00, 0x01, 0x00, 0x00, 0x00,
  0xd6, 0x05, 0x8d, 0x3c, 0x0e, 0x00, 0x00, 0x00, 0x61, 0x72, 0x69, 0x74,
  0x68, 0x2e, 0x63, 0x6f, 0x6e, 0x73, 0x74, 0x61, 0x6e, 0x74, 0x00, 0x00,
  0x02, 0x00, 0x00, 0x00, 0x10, 0x00, 0x00, 0x00, 0x10, 0x00, 0x00, 0x00,
  0x7e, 0xfc, 0xff, 0xff, 0x00, 0x00, 0x00, 0x01, 0x14, 0x00, 0x00, 0x00,
  0x34, 0x00, 0x00, 0x00, 0x0b, 0x00, 0x00, 0x00, 0x00, 0x00, 0x00, 0x09,
  0x3c, 0x00, 0x00, 0x00, 0x0c, 0xfd, 0xff, 0xff, 0x08, 0x00, 0x00, 0x00,
  0x14, 0x00, 0x00, 0x00, 0x01, 0x00, 0x00, 0x00, 0x00, 0x00, 0x00, 0x00,
  0x00, 0x00, 0x00, 0x00, 0x00, 0x00, 0x00, 0x00, 0x01, 0x00, 0x00, 0x00,
  0x4c, 0x1a, 0x16, 0x3c, 0x0f, 0x00, 0x00, 0x00, 0x61, 0x72, 0x69, 0x74,
  0x68, 0x2e, 0x63, 0x6f, 0x6e, 0x73, 0x74, 0x61, 0x6e, 0x74, 0x31, 0x00,
  0x02, 0x00, 0x00, 0x00, 0x10, 0x00, 0x00, 0x00, 0x10, 0x00, 0x00, 0x00,
  0xde, 0xfc, 0xff, 0xff, 0x00, 0x00, 0x00, 0x01, 0x14, 0x00, 0x00, 0x00,
  0x34, 0x00, 0x00, 0x00, 0x0a, 0x00, 0x00, 0x00, 0x00, 0x00, 0x00, 0x09,
  0x3c, 0x00, 0x00, 0x00, 0x6c, 0xfd, 0xff, 0xff, 0x08, 0x00, 0x00, 0x00,
  0x14, 0x00, 0x00, 0x00, 0x01, 0x00, 0x00, 0x00, 0x00, 0x00, 0x00, 0x00,
  0x00, 0x00, 0x00, 0x00, 0x00, 0x00, 0x00, 0x00, 0x01, 0x00, 0x00, 0x00,
  0xe7, 0x9d, 0xd0, 0x3b, 0x0f, 0x00, 0x00, 0x00, 0x61, 0x72, 0x69, 0x74,
  0x68, 0x2e, 0x63, 0x6f, 0x6e, 0x73, 0x74, 0x61, 0x6e, 0x74, 0x32, 0x00,
  0x02, 0x00, 0x00, 0x00, 0x10, 0x00, 0x00, 0x00, 0x10, 0x00, 0x00, 0x00,
  0x3e, 0xfd, 0xff, 0xff, 0x00, 0x00, 0x00, 0x01, 0x14, 0x00, 0x00, 0x00,
  0x34, 0x00, 0x00, 0x00, 0x09, 0x00, 0x00, 0x00, 0x00, 0x00, 0x00, 0x09,
  0x3c, 0x00, 0x00, 0x00, 0xcc, 0xfd, 0xff, 0xff, 0x08, 0x00, 0x00, 0x00,
  0x14, 0x00, 0x00, 0x00, 0x01, 0x00, 0x00, 0x00, 0x00, 0x00, 0x00, 0x00,
  0x00, 0x00, 0x00, 0x00, 0x00, 0x00, 0x00, 0x00, 0x01, 0x00, 0x00, 0x00,
  0x1d, 0x75, 0x4f, 0x3c, 0x0f, 0x00, 0x00, 0x00, 0x61, 0x72, 0x69, 0x74,
  0x68, 0x2e, 0x63, 0x6f, 0x6e, 0x73, 0x74, 0x61, 0x6e, 0x74, 0x33, 0x00,
  0x02, 0x00, 0x00, 0x00, 0x10, 0x00, 0x00, 0x00, 0x10, 0x00, 0x00, 0x00,
  0x9e, 0xfd, 0xff, 0xff, 0x00, 0x00, 0x00, 0x01, 0x14, 0x00, 0x00, 0x00,
  0x30, 0x00, 0x00, 0x00, 0x08, 0x00, 0x00, 0x00, 0x00, 0x00, 0x00, 0x02,
  0x38, 0x00, 0x00, 0x00, 0x2c, 0xfe, 0xff, 0xff, 0x08, 0x00, 0x00, 0x00,
  0x10, 0x00, 0x00, 0x00, 0x01, 0x00, 0x00, 0x00, 0x00, 0x00, 0x00, 0x00,
  0x00, 0x00, 0x00, 0x00, 0x01, 0x00, 0x00, 0x00, 0x5b, 0x97, 0x04, 0x38,
  0x0f, 0x00, 0x00, 0x00, 0x61, 0x72, 0x69, 0x74, 0x68, 0x2e, 0x63, 0x6f,
  0x6e, 0x73, 0x74, 0x61, 0x6e, 0x74, 0x34, 0x00, 0x01, 0x00, 0x00, 0x00,
  0x10, 0x00, 0x00, 0x00, 0xf6, 0xfd, 0xff, 0xff, 0x00, 0x00, 0x00, 0x01,
  0x14, 0x00, 0x00, 0x00, 0x30, 0x00, 0x00, 0x00, 0x07, 0x00, 0x00, 0x00,
  0x00, 0x00, 0x00, 0x02, 0x38, 0x00, 0x00, 0x00, 0x84, 0xfe, 0xff, 0xff,
  0x08, 0x00, 0x00, 0x00, 0x10, 0x00, 0x00, 0x00, 0x01, 0x00, 0x00, 0x00,
  0x00, 0x00, 0x00, 0x00, 0x00, 0x00, 0x00, 0x00, 0x01, 0x00, 0x00, 0x00,
  0xff, 0x83, 0xb1, 0x37, 0x0f, 0x00, 0x00, 0x00, 0x61, 0x72, 0x69, 0x74,
  0x68, 0x2e, 0x63, 0x6f, 0x6e, 0x73, 0x74, 0x61, 0x6e, 0x74, 0x35, 0x00,
  0x01, 0x00, 0x00, 0x00, 0x10, 0x00, 0x00, 0x00, 0x4e, 0xfe, 0xff, 0xff,
  0x00, 0x00, 0x00, 0x01, 0x14, 0x00, 0x00, 0x00, 0x30, 0x00, 0x00, 0x00,
  0x06, 0x00, 0x00, 0x00, 0x00, 0x00, 0x00, 0x02, 0x38, 0x00, 0x00, 0x00,
  0xdc, 0xfe, 0xff, 0xff, 0x08, 0x00, 0x00, 0x00, 0x10, 0x00, 0x00, 0x00,
  0x01, 0x00, 0x00, 0x00, 0x00, 0x00, 0x00, 0x00, 0x00, 0x00, 0x00, 0x00,
  0x01, 0x00, 0x00, 0x00, 0x79, 0x53, 0xbe, 0x37, 0x0f, 0x00, 0x00, 0x00,
  0x61, 0x72, 0x69, 0x74, 0x68, 0x2e, 0x63, 0x6f, 0x6e, 0x73, 0x74, 0x61,
  0x6e, 0x74, 0x36, 0x00, 0x01, 0x00, 0x00, 0x00, 0x10, 0x00, 0x00, 0x00,
  0xa6, 0xfe, 0xff, 0xff, 0x00, 0x00, 0x00, 0x01, 0x14, 0x00, 0x00, 0x00,
  0x30, 0x00, 0x00, 0x00, 0x05, 0x00, 0x00, 0x00, 0x00, 0x00, 0x00, 0x02,
  0x38, 0x00, 0x00, 0x00, 0x34, 0xff, 0xff, 0xff, 0x08, 0x00, 0x00, 0x00,
  0x10, 0x00, 0x00, 0x00, 0x01, 0x00, 0x00, 0x00, 0x00, 0x00, 0x00, 0x00,
  0x00, 0x00, 0x00, 0x00, 0x01, 0x00, 0x00, 0x00, 0x75, 0x68, 0x15, 0x38,
  0x0f, 0x00, 0x00, 0x00, 0x61, 0x72, 0x69, 0x74, 0x68, 0x2e, 0x63, 0x6f,
  0x6e, 0x73, 0x74, 0x61, 0x6e, 0x74, 0x37, 0x00, 0x01, 0x00, 0x00, 0x00,
  0x10, 0x00, 0x00, 0x00, 0xfe, 0xfe, 0xff, 0xff, 0x00, 0x00, 0x00, 0x01,
  0x14, 0x00, 0x00, 0x00, 0x34, 0x00, 0x00, 0x00, 0x04, 0x00, 0x00, 0x00,
  0x00, 0x00, 0x00, 0x09, 0x50, 0x00, 0x00, 0x00, 0x8c, 0xff, 0xff, 0xff,
  0x08, 0x00, 0x00, 0x00, 0x14, 0x00, 0x00, 0x00, 0x01, 0x00, 0x00, 0x00,
  0x00, 0x00, 0x00, 0x00, 0x00, 0x00, 0x00, 0x00, 0x00, 0x00, 0x00, 0x00,
  0x01, 0x00, 0x00, 0x00, 0xd1, 0x6f, 0x24, 0x3c, 0x21, 0x00, 0x00, 0x00,
  0x4c, 0x53, 0x54, 0x4d, 0x5f, 0x53, 0x74, 0x61, 0x74, 0x65, 0x6c, 0x65,
  0x73, 0x73, 0x2f, 0x70, 0x72, 0x65, 0x64, 0x69, 0x63, 0x74, 0x69, 0x6f,
  0x6e, 0x73, 0x2f, 0x4d, 0x61, 0x74, 0x4d, 0x75, 0x6c, 0x00, 0x00, 0x00,
  0x02, 0x00, 0x00, 0x00, 0x0a, 0x00, 0x00, 0x00, 0x40, 0x01, 0x00, 0x00,
  0x72, 0xff, 0xff, 0xff, 0x00, 0x00, 0x00, 0x01, 0x20, 0x00, 0x00, 0x00,
  0x40, 0x00, 0x00, 0x00, 0x03, 0x00, 0x00, 0x00, 0x00, 0x00, 0x00, 0x02,
  0x6c, 0x00, 0x00, 0x00, 0x0c, 0x00, 0x0c, 0x00, 0x00, 0x00, 0x00, 0x00,
  0x08, 0x00, 0x04, 0x00, 0x0c, 0x00, 0x00, 0x00, 0x08, 0x00, 0x00, 0x00,
  0x14, 0x00, 0x00, 0x00, 0x01, 0x00, 0x00, 0x00, 0x00, 0x00, 0x00, 0x00,
  0x00, 0x00, 0x00, 0x00, 0x00, 0x00, 0x00, 0x00, 0x01, 0x00, 0x00, 0x00,
  0xcf, 0xf8, 0xa4, 0x38, 0x31, 0x00, 0x00, 0x00, 0x4c, 0x53, 0x54, 0x4d,
  0x5f, 0x53, 0x74, 0x61, 0x74, 0x65, 0x6c, 0x65, 0x73, 0x73, 0x2f, 0x70,
  0x72, 0x65, 0x64, 0x69, 0x63, 0x74, 0x69, 0x6f, 0x6e, 0x73, 0x2f, 0x42,
  0x69, 0x61, 0x73, 0x41, 0x64, 0x64, 0x2f, 0x52, 0x65, 0x61, 0x64, 0x56,
  0x61, 0x72, 0x69, 0x61, 0x62, 0x6c, 0x65, 0x4f, 0x70, 0x00, 0x00, 0x00,
  0x01, 0x00, 0x00, 0x00, 0x0a, 0x00, 0x00, 0x00, 0x00, 0x00, 0x16, 0x00,
  0x1c, 0x00, 0x18, 0x00, 0x17, 0x00, 0x10, 0x00, 0x0c, 0x00, 0x08, 0x00,
  0x00, 0x00, 0x00, 0x00, 0x00, 0x00, 0x07, 0x00, 0x16, 0x00, 0x00, 0x00,
  0x00, 0x00, 0x00, 0x01, 0x14, 0x00, 0x00, 0x00, 0x14, 0x00, 0x00, 0x00,
  0x02, 0x00, 0x00, 0x00, 0x00, 0x00, 0x00, 0x02, 0x2c, 0x00, 0x00, 0x00,
  0xa0, 0xff, 0xff, 0xff, 0x1e, 0x00, 0x00, 0x00, 0x4c, 0x53, 0x54, 0x4d,
  0x5f, 0x53, 0x74, 0x61, 0x74, 0x65, 0x6c, 0x65, 0x73, 0x73, 0x2f, 0x66,
  0x6c, 0x61, 0x74, 0x74, 0x65, 0x6e, 0x5f, 0x36, 0x2f, 0x43, 0x6f, 0x6e,
  0x73, 0x74, 0x00, 0x00, 0x01, 0x00, 0x00, 0x00, 0x02, 0x00, 0x00, 0x00,
  0x00, 0x00, 0x16, 0x00, 0x18, 0x00, 0x14, 0x00, 0x00, 0x00, 0x10, 0x00,
  0x0c, 0x00, 0x08, 0x00, 0x00, 0x00, 0x00, 0x00, 0x00, 0x00, 0x07, 0x00,
  0x16, 0x00, 0x00, 0x00, 0x00, 0x00, 0x00, 0x01, 0x14, 0x00, 0x00, 0x00,
  0x14, 0x00, 0x00, 0x00, 0x01, 0x00, 0x00, 0x00, 0x24, 0x00, 0x00, 0x00,
  0x04, 0x00, 0x04, 0x00, 0x04, 0x00, 0x00, 0x00, 0x13, 0x00, 0x00, 0x00,
  0x73, 0x65, 0x72, 0x76, 0x69, 0x6e, 0x67, 0x5f, 0x64, 0x65, 0x66, 0x61,
  0x75, 0x6c, 0x74, 0x5f, 0x78, 0x3a, 0x30, 0x00, 0x03, 0x00, 0x00, 0x00,
  0x01, 0x00, 0x00, 0x00, 0x14, 0x00, 0x00, 0x00, 0x0f, 0x00, 0x00, 0x00,
  0x06, 0x00, 0x00, 0x00, 0x78, 0x00, 0x00, 0x00, 0x5c, 0x00, 0x00, 0x00,
  0x4c, 0x00, 0x00, 0x00, 0x38, 0x00, 0x00, 0x00, 0x18, 0x00, 0x00, 0x00,
  0x04, 0x00, 0x00, 0x00, 0xe0, 0xff, 0xff, 0xff, 0x06, 0x00, 0x00, 0x00,
  0x02, 0x00, 0x00, 0x00, 0x00, 0x00, 0x00, 0x06, 0xf0, 0xff, 0xff, 0xff,
  0x19, 0x00, 0x00, 0x00, 0x02, 0x00, 0x00, 0x00, 0x00, 0x00, 0x00, 0x19,
  0x0c, 0x00, 0x10, 0x00, 0x0f, 0x00, 0x00, 0x00, 0x08, 0x00, 0x04, 0x00,
  0x0c, 0x00, 0x00, 0x00, 0x09, 0x00, 0x00, 0x00, 0x04, 0x00, 0x00, 0x00,
  0x00, 0x00, 0x00, 0x09, 0xe8, 0xff, 0xff, 0xff, 0x16, 0x00, 0x00, 0x00,
  0x00, 0x00, 0x00, 0x16, 0xf4, 0xff, 0xff, 0xff, 0x2c, 0x00, 0x00, 0x00,
  0x00, 0x00, 0x00, 0x2c, 0x0c, 0x00, 0x0c, 0x00, 0x0b, 0x00, 0x00, 0x00,
  0x00, 0x00, 0x04, 0x00, 0x0c, 0x00, 0x00, 0x00, 0x72, 0x00, 0x00, 0x00,
  0x00, 0x00, 0x00, 0x72
};
const unsigned int lstm_model_quantized_tflite_len = 9928;
