alignas(8) const unsigned char lstm_model_quantized_tflite[] = {
  0x1c, 0x00, 0x00, 0x00, 0x54, 0x46, 0x4c, 0x33, 0x14, 0x00, 0x20, 0x00,
  0x1c, 0x00, 0x18, 0x00, 0x14, 0x00, 0x10, 0x00, 0x0c, 0x00, 0x00, 0x00,
  0x08, 0x00, 0x04, 0x00, 0x14, 0x00, 0x00, 0x00, 0x1c, 0x00, 0x00, 0x00,
  0x80, 0x00, 0x00, 0x00, 0xd8, 0x00, 0x00, 0x00, 0x4c, 0x11, 0x00, 0x00,
  0x5c, 0x11, 0x00, 0x00, 0xfc, 0x1e, 0x00, 0x00, 0x03, 0x00, 0x00, 0x00,
  0x01, 0x00, 0x00, 0x00, 0x04, 0x00, 0x00, 0x00, 0xc2, 0xed, 0xff, 0xff,
  0x0c, 0x00, 0x00, 0x00, 0x1c, 0x00, 0x00, 0x00, 0x3c, 0x00, 0x00, 0x00,
  0x0f, 0x00, 0x00, 0x00, 0x73, 0x65, 0x72, 0x76, 0x69, 0x6e, 0x67, 0x5f,
  0x64, 0x65, 0x66, 0x61, 0x75, 0x6c, 0x74, 0x00, 0x01, 0x00, 0x00, 0x00,
  0x04, 0x00, 0x00, 0x00, 0x9c, 0xff, 0xff, 0xff, 0x1c, 0x00, 0x00, 0x00,
  0x04, 0x00, 0x00, 0x00, 0x08, 0x00, 0x00, 0x00, 0x6f, 0x75, 0x74, 0x70,
  0x75, 0x74, 0x5f, 0x30, 0x00, 0x00, 0x00, 0x00, 0x01, 0x00, 0x00, 0x00,
  0x04, 0x00, 0x00, 0x00, 0x76, 0xee, 0xff, 0xff, 0x04, 0x00, 0x00, 0x00,
  0x01, 0x00, 0x00, 0x00, 0x78, 0x00, 0x00, 0x00, 0x02, 0x00, 0x00, 0x00,
  0x34, 0x00, 0x00, 0x00, 0x04, 0x00, 0x00, 0x00, 0xdc, 0xff, 0xff, 0xff,
  0x1a, 0x00, 0x00, 0x00, 0x04, 0x00, 0x00, 0x00, 0x13, 0x00, 0x00, 0x00,
  0x43, 0x4f, 0x4e, 0x56, 0x45, 0x52, 0x53, 0x49, 0x4f, 0x4e, 0x5f, 0x4d,
  0x45, 0x54, 0x41, 0x44, 0x41, 0x54, 0x41, 0x00, 0x08, 0x00, 0x0c, 0x00,
  0x08, 0x00, 0x04, 0x00, 0x08, 0x00, 0x00, 0x00, 0x19, 0x00, 0x00, 0x00,
  0x04, 0x00, 0x00, 0x00, 0x13, 0x00, 0x00, 0x00, 0x6d, 0x69, 0x6e, 0x5f,
  0x72, 0x75, 0x6e, 0x74, 0x69, 0x6d, 0x65, 0x5f, 0x76, 0x65, 0x72, 0x73,
  0x69, 0x6f, 0x6e, 0x00, 0x1b, 0x00, 0x00, 0x00, 0x70, 0x10, 0x00, 0x00,
  0x68, 0x10, 0x00, 0x00, 0x50, 0x10, 0x00, 0x00, 0x30, 0x10, 0x00, 0x00,
  0xa0, 0x03, 0x00, 0x00, 0x70, 0x03, 0x00, 0x00, 0x40, 0x03, 0x00, 0x00,
  0x10, 0x03, 0x00, 0x00, 0xe0, 0x02, 0x00, 0x00, 0x90, 0x02, 0x00, 0x00,
  0x40, 0x02, 0x00, 0x00, 0xf0, 0x01, 0x00, 0x00, 0xa0, 0x01, 0x00, 0x00,
  0x78, 0x01, 0x00, 0x00, 0x50, 0x01, 0x00, 0x00, 0x28, 0x01, 0x00, 0x00,
  0x00, 0x01, 0x00, 0x00, 0xf8, 0x00, 0x00, 0x00, 0xe0, 0x00, 0x00, 0x00,
  0xc0, 0x00, 0x00, 0x00, 0xb8, 0x00, 0x00, 0x00, 0xb0, 0x00, 0x00, 0x00,
  0xa8, 0x00, 0x00, 0x00, 0xa0, 0x00, 0x00, 0x00, 0x98, 0x00, 0x00, 0x00,
  0x78, 0x00, 0x00, 0x00, 0x04, 0x00, 0x00, 0x00, 0x52, 0xef, 0xff, 0xff,
  0x04, 0x00, 0x00, 0x00, 0x64, 0x00, 0x00, 0x00, 0x0c, 0x00, 0x00, 0x00,
  0x08, 0x00, 0x0e, 0x00, 0x08, 0x00, 0x04, 0x00, 0x08, 0x00, 0x00, 0x00,
  0x10, 0x00, 0x00, 0x00, 0x28, 0x00, 0x00, 0x00, 0x00, 0x00, 0x06, 0x00,
  0x08, 0x00, 0x04, 0x00, 0x06, 0x00, 0x00, 0x00, 0x04, 0x00, 0x00, 0x00,
  0x01, 0x00, 0x00, 0x00, 0xeb, 0x03, 0x00, 0x00, 0x00, 0x00, 0x0a, 0x00,
  0x10, 0x00, 0x0c, 0x00, 0x08, 0x00, 0x04, 0x00, 0x0a, 0x00, 0x00, 0x00,
  0x01, 0x00, 0x00, 0x00, 0x02, 0x00, 0x00, 0x00, 0x04, 0x00, 0x00, 0x00,
  0x12, 0x00, 0x00, 0x00, 0x32, 0x2e, 0x31, 0x34, 0x2e, 0x30, 0x2d, 0x64,
  0x65, 0x76, 0x32, 0x30, 0x32, 0x33, 0x30, 0x35, 0x32, 0x34, 0x00, 0x00,
  0xc2, 0xef, 0xff, 0xff, 0x04, 0x00, 0x00, 0x00, 0x10, 0x00, 0x00, 0x00,
  0x31, 0x2e, 0x31, 0x34, 0x2e, 0x30, 0x00, 0x00, 0x00, 0x00, 0x00, 0x00,
  0x00, 0x00, 0x00, 0x00, 0xfc, 0xe2, 0xff, 0xff, 0x00, 0xe3, 0xff, 0xff,
  0x04, 0xe3, 0xff, 0xff, 0x08, 0xe3, 0xff, 0xff, 0x0c, 0xe3, 0xff, 0xff,
  0xf2, 0xef, 0xff, 0xff, 0x04, 0x00, 0x00, 0x00, 0x10, 0x00, 0x00, 0x00,
  0x00, 0x60, 0x00, 0x60, 0x00, 0x60, 0x00, 0x60, 0x00, 0x60, 0x00, 0x60,
  0x00, 0x60, 0x00, 0x60, 0x0e, 0xf0, 0xff, 0xff, 0x04, 0x00, 0x00, 0x00,
  0x08, 0x00, 0x00, 0x00, 0x7f, 0x7f, 0x7f, 0x7f, 0x7f, 0x7f, 0x7f, 0x7f,
  0x40, 0xe3, 0xff, 0xff, 0x26, 0xf0, 0xff, 0xff, 0x04, 0x00, 0x00, 0x00,
  0x18, 0x00, 0x00, 0x00, 0xfe, 0x7f, 0xfc, 0x5a, 0xd0, 0x4e, 0xe3, 0x11,
  0xf2, 0x08, 0xf6, 0xb7, 0xd4, 0xd7, 0x5f, 0x18, 0xaa, 0x4d, 0x12, 0xd4,
  0xf3, 0xf6, 0x35, 0x08, 0x4a, 0xf0, 0xff, 0xff, 0x04, 0x00, 0x00, 0x00,
  0x18, 0x00, 0x00, 0x00, 0x2b, 0x7f, 0x0f, 0x10, 0x01, 0xee, 0xca, 0x24,
  0xf9, 0xb3, 0x28, 0x26, 0x1e, 0x0e, 0xfb, 0xd8, 0xb4, 0x05, 0x63, 0x41,
  0xe3, 0xe7, 0xec, 0xd6, 0x6e, 0xf0, 0xff, 0xff, 0x04, 0x00, 0x00, 0x00,
  0x18, 0x00, 0x00, 0x00, 0x50, 0x86, 0x6b, 0x2d, 0xf4, 0xd9, 0x47, 0x9a,
  0x99, 0x57, 0xd7, 0x5a, 0x1a, 0x89, 0x72, 0xce, 0x90, 0xb2, 0x81, 0x0e,
  0x42, 0xfb, 0xde, 0xfd, 0x92, 0xf0, 0xff, 0xff, 0x04, 0x00, 0x00, 0x00,
  0x18, 0x00, 0x00, 0x00, 0x12, 0x4f, 0x7f, 0x71, 0x0c, 0x46, 0x20, 0x14,
  0x23, 0x1e, 0xd3, 0x11, 0x32, 0xb5, 0x78, 0x1c, 0xea, 0x4c, 0x39, 0x33,
  0x4a, 0xe2, 0x09, 0xcd, 0xb6, 0xf0, 0xff, 0xff, 0x04, 0x00, 0x00, 0x00,
  0x40, 0x00, 0x00, 0x00, 0xe8, 0x11, 0xef, 0x46, 0xf3, 0xec, 0xd1, 0x29,
  0x2e, 0xb0, 0x00, 0xcc, 0x03, 0xd6, 0xf1, 0xb3, 0xe0, 0xc5, 0x0e, 0x00,
  0x1d, 0x02, 0x0c, 0xff, 0x18, 0x0c, 0xe5, 0xf0, 0x19, 0x14, 0xe7, 0x02,
  0xfc, 0x36, 0x1e, 0x23, 0xd2, 0xbd, 0xec, 0x0f, 0xd3, 0xe8, 0x0a, 0x2f,
  0xf2, 0xf1, 0x47, 0x41, 0x11, 0x2d, 0x17, 0x17, 0x10, 0xbf, 0x91, 0xe8,
  0xc2, 0x28, 0x2a, 0xd5, 0x81, 0xf7, 0x08, 0x01, 0x02, 0xf1, 0xff, 0xff,
  0x04, 0x00, 0x00, 0x00, 0x40, 0x00, 0x00, 0x00, 0x23, 0xd4, 0x10, 0x48,
  0xf5, 0xd6, 0x81, 0xd6, 0xef, 0xf5, 0x09, 0x20, 0xec, 0x07, 0xfd, 0xe2,
  0x05, 0xf7, 0x03, 0xd8, 0xfa, 0x3a, 0x17, 0x75, 0xd1, 0xf6, 0x26, 0x18,
  0x03, 0xf3, 0xc9, 0x5c, 0x00, 0xc6, 0x1b, 0x37, 0x06, 0xf5, 0xd7, 0xec,
  0x82, 0xec, 0x0d, 0xca, 0xed, 0x5d, 0xe0, 0x0d, 0xdc, 0x36, 0xb8, 0x32,
  0xf6, 0xb8, 0xb1, 0xcf, 0xb5, 0xf6, 0xda, 0xd8, 0xce, 0x19, 0x24, 0x12,
  0x4e, 0xf1, 0xff, 0xff, 0x04, 0x00, 0x00, 0x00, 0x40, 0x00, 0x00, 0x00,
  0x60, 0x37, 0x7b, 0x1e, 0x46, 0x31, 0xf4, 0xeb, 0x01, 0x28, 0xd2, 0xea,
  0xd7, 0x3d, 0xc1, 0xf7, 0xdd, 0x79, 0x25, 0xbe, 0x42, 0x05, 0x02, 0x10,
  0x3d, 0x64, 0x4d, 0x15, 0xe8, 0x68, 0xff, 0xa1, 0xea, 0xc6, 0xb3, 0xe4,
  0x4c, 0x31, 0x3a, 0x36, 0xc6, 0xe4, 0xe6, 0xd5, 0x0b, 0xda, 0xf0, 0x70,
  0x0c, 0xf8, 0xbd, 0xf2, 0x0f, 0xfc, 0x26, 0xf1, 0x81, 0xe0, 0x2c, 0xd4,
  0xf5, 0x9b, 0x2b, 0x0b, 0x9a, 0xf1, 0xff, 0xff, 0x04, 0x00, 0x00, 0x00,
  0x40, 0x00, 0x00, 0x00, 0xfc, 0x27, 0x19, 0xd2, 0xcd, 0xcc, 0x81, 0x42,
  0x2f, 0xf9, 0xff, 0x4d, 0xee, 0x03, 0xec, 0xeb, 0xf0, 0x11, 0x22, 0xb2,
  0x2e, 0xf1, 0x2d, 0x25, 0x1d, 0x2a, 0xe7, 0xf5, 0xbb, 0x15, 0x08, 0x2d,
  0xec, 0x06, 0x23, 0x43, 0x1e, 0x23, 0xcc, 0xf1, 0xbc, 0xff, 0x13, 0xf9,
  0xf2, 0x01, 0xeb, 0x24, 0x0e, 0x40, 0xfc, 0x19, 0xfe, 0xec, 0xc7, 0xfa,
  0xd7, 0x10, 0x47, 0xf3, 0x17, 0x2a, 0x58, 0x2d, 0xe6, 0xf1, 0xff, 0xff,
  0x04, 0x00, 0x00, 0x00, 0x20, 0x00, 0x00, 0x00, 0x11, 0x34, 0x00, 0x00,
  0x27, 0x18, 0x00, 0x00, 0x41, 0x0b, 0x00, 0x00, 0xdc, 0x04, 0x00, 0x00,
  0x31, 0x28, 0x00, 0x00, 0x36, 0x03, 0x00, 0x00, 0xbb, 0x1b, 0x00, 0x00,
  0xfd, 0x09, 0x00, 0x00, 0x12, 0xf2, 0xff, 0xff, 0x04, 0x00, 0x00, 0x00,
  0x20, 0x00, 0x00, 0x00, 0x60, 0xcb, 0x00, 0x00, 0xdd, 0xc0, 0x00, 0x00,
  0x88, 0xbe, 0x00, 0x00, 0x6d, 0xae, 0x00, 0x00, 0xca, 0xca, 0x00, 0x00,
  0x02, 0xbc, 0x00, 0x00, 0xcb, 0xbf, 0x00, 0x00, 0x6f, 0xbe, 0x00, 0x00,
  0x3e, 0xf2, 0xff, 0xff, 0x04, 0x00, 0x00, 0x00, 0x20, 0x00, 0x00, 0x00,
  0xac, 0xf5, 0xff, 0xff, 0x60, 0x08, 0x00, 0x00, 0x21, 0x15, 0x00, 0x00,
  0xd7, 0xdd, 0xff, 0xff, 0x09, 0xf7, 0xff, 0xff, 0xeb, 0x18, 0x00, 0x00,
  0x1a, 0x15, 0x00, 0x00, 0x2d, 0x1d, 0x00, 0x00, 0x6a, 0xf2, 0xff, 0xff,
  0x04, 0x00, 0x00, 0x00, 0x20, 0x00, 0x00, 0x00, 0xbf, 0x3f, 0x00, 0x00,
  0x94, 0x1b, 0x00, 0x00, 0x91, 0x08, 0x00, 0x00, 0x3d, 0x08, 0x00, 0x00,
  0xce, 0x2d, 0x00, 0x00, 0xf9, 0x00, 0x00, 0x00, 0xb4, 0x21, 0x00, 0x00,
  0x13, 0x0f, 0x00, 0x00, 0x96, 0xf2, 0xff, 0xff, 0x04, 0x00, 0x00, 0x00,
  0x80, 0x0c, 0x00, 0x00, 0xcb, 0x34, 0x2b, 0x00, 0x26, 0xf8, 0x18, 0x0e,
  0xfa, 0xff, 0x01, 0x11, 0x0a, 0xe0, 0x14, 0x1a, 0xdf, 0x1b, 0xfa, 0xfe,
  0xd9, 0xf7, 0xd6, 0x05, 0xf3, 0xe7, 0xf9, 0xfb, 0xde, 0x2e, 0xf5, 0x0c,
  0xf8, 0xeb, 0x1d, 0x0e, 0xfd, 0xe7, 0xf3, 0xf2, 0x0a, 0x2c, 0x0e, 0x09,
  0x38, 0x21, 0x13, 0xfa, 0xf2, 0xe1, 0x1e, 0xe4, 0x29, 0x01, 0xe6, 0x13,
  0xe9, 0xf5, 0x25, 0x14, 0x1c, 0xf2, 0xd1, 0x20, 0x02, 0x08, 0xf4, 0xf2,
  0xfa, 0xf5, 0xf8, 0x1c, 0x10, 0x20, 0xed, 0xff, 0xea, 0x13, 0xeb, 0x10,
  0xdd, 0xf9, 0x15, 0x0a, 0xef, 0xfb, 0xe4, 0xda, 0x34, 0xfe, 0xe0, 0x12,
  0x15, 0x0a, 0xd8, 0x09, 0x09, 0x0d, 0xfa, 0x22, 0xfd, 0x1a, 0xe6, 0x2d,
  0x1e, 0xfa, 0x0a, 0x29, 0xf6, 0xe5, 0x04, 0xe3, 0xf3, 0xf3, 0xf4, 0xe4,
  0x14, 0xe0, 0x0e, 0xe6, 0x36, 0xde, 0x1c, 0x26, 0x25, 0x24, 0xfe, 0xda,
  0x3c, 0xf0, 0xf9, 0xef, 0x0d, 0xfa, 0x10, 0xef, 0x04, 0xe3, 0x0a, 0x2f,
  0x1f, 0x00, 0x25, 0x03, 0xfe, 0x0a, 0x08, 0xe3, 0x03, 0x02, 0x1d, 0x25,
  0xf2, 0xd1, 0xea, 0x20, 0x09, 0xf3, 0xf3, 0xe1, 0x2e, 0xfa, 0xe7, 0xf3,
  0x08, 0xf2, 0xed, 0x11, 0x1d, 0x26, 0x1a, 0x15, 0x19, 0x18, 0x21, 0xfe,
  0x18, 0xf2, 0x1e, 0x17, 0x08, 0x29, 0x12, 0xfe, 0x23, 0xe4, 0x10, 0x0a,
  0x3d, 0xf2, 0x31, 0x10, 0x4b, 0xd7, 0x19, 0x02, 0x0f, 0x32, 0x11, 0x17,
  0x0e, 0xea, 0xf7, 0xfa, 0x20, 0x0e, 0x42, 0xe8, 0x31, 0xec, 0x1c, 0x1e,
  0x37, 0x06, 0xec, 0x0c, 0x3d, 0x17, 0xed, 0xe1, 0x09, 0x00, 0xea, 0xf7,
  0x18, 0x24, 0x23, 0x09, 0xfc, 0xd8, 0x19, 0x13, 0x0f, 0x06, 0x10, 0xff,
  0xf4, 0x06, 0xf3, 0x02, 0xfc, 0xff, 0x08, 0xd3, 0x22, 0x21, 0xf8, 0x06,
  0x38, 0x0b, 0x14, 0x18, 0x00, 0x01, 0xe8, 0xe3, 0x2e, 0xd7, 0xf3, 0x28,
  0x35, 0xe9, 0x00, 0xf9, 0x12, 0x03, 0xed, 0x02, 0x0b, 0x38, 0x1e, 0x1a,
  0x04, 0xf3, 0xea, 0xf6, 0xf2, 0x24, 0x2a, 0x0e, 0x2c, 0x08, 0xf4, 0x1b,
  0x44, 0xfb, 0x1c, 0xf3, 0x1f, 0x1b, 0xe4, 0xd2, 0x0f, 0x0f, 0x05, 0x1c,
  0x28, 0xcf, 0x23, 0xff, 0x12, 0xed, 0x1a, 0x22, 0xfe, 0xd5, 0x1f, 0xea,
  0x2e, 0x11, 0xde, 0x34, 0x2e, 0xdd, 0x29, 0x18, 0x20, 0x1f, 0x19, 0x22,
  0x52, 0xe1, 0x19, 0xf7, 0x1c, 0x14, 0x11, 0xf1, 0x11, 0xf1, 0x17, 0xda,
  0x4c, 0x17, 0xff, 0xf4, 0x1b, 0xd3, 0x1a, 0x00, 0x57, 0x1e, 0x1e, 0xfd,
  0x50, 0xf0, 0x19, 0x23, 0x38, 0xf2, 0x1d, 0x0a, 0x09, 0xde, 0x2e, 0x15,
  0x2b, 0xfe, 0x2e, 0xd3, 0x4d, 0xd0, 0x1a, 0x09, 0x5e, 0x29, 0x17, 0x15,
  0x30, 0xd5, 0x21, 0xe6, 0x2e, 0x31, 0x00, 0xf7, 0x1d, 0x0c, 0xe1, 0xea,
  0x42, 0x14, 0x31, 0x1b, 0x1b, 0xe8, 0xee, 0xcc, 0x21, 0xe4, 0x1c, 0xe9,
  0x2d, 0xd9, 0x05, 0xf5, 0x2a, 0xfa, 0x1b, 0xd1, 0x0f, 0xd9, 0xda, 0x1c,
  0x50, 0xe4, 0x30, 0x17, 0x3c, 0xf9, 0x05, 0xda, 0x07, 0xe0, 0xf8, 0xf8,
  0x32, 0x14, 0xe1, 0x0e, 0x3b, 0xd7, 0x0b, 0x10, 0x06, 0xde, 0xcb, 0xe5,
  0x1b, 0xfd, 0x10, 0x06, 0x2c, 0xf3, 0xe5, 0xe4, 0x34, 0xda, 0xfa, 0x20,
  0xf5, 0xe2, 0x19, 0x2f, 0x29, 0xe0, 0x11, 0x09, 0x12, 0x0e, 0xef, 0x0e,
  0x2f, 0x0d, 0xca, 0x22, 0x14, 0xe9, 0xfd, 0x06, 0x26, 0x0b, 0x05, 0xd7,
  0x22, 0x06, 0xf5, 0xd6, 0x0f, 0xf1, 0xe9, 0x12, 0x05, 0xf8, 0x10, 0x0f,
  0xfe, 0x18, 0xf7, 0x0a, 0xe9, 0x1c, 0x1d, 0xea, 0x3d, 0x29, 0x08, 0x00,
  0xdf, 0x02, 0xf8, 0xdf, 0xdd, 0xe6, 0x13, 0xce, 0xe3, 0xff, 0x0a, 0xfa,
  0xd9, 0xf2, 0x19, 0xd3, 0xcd, 0xde, 0x16, 0x05, 0x0f, 0xe2, 0xe3, 0x0b,
  0xb2, 0xf8, 0xdf, 0x1a, 0x30, 0xf0, 0xc9, 0x0e, 0xf4, 0x40, 0xfc, 0x0d,
  0xe5, 0x23, 0xe9, 0x01, 0xaa, 0x20, 0x07, 0x13, 0xe0, 0xd6, 0xdc, 0x10,
  0xd9, 0x0a, 0x24, 0xf4, 0x20, 0x1b, 0xd6, 0xea, 0xd2, 0x0a, 0xf9, 0x0a,
  0x1d, 0xe1, 0xe0, 0x34, 0xec, 0x00, 0x15, 0x16, 0x11, 0x14, 0xe7, 0xd7,
  0xcd, 0x2b, 0x19, 0x05, 0x41, 0xfb, 0xc9, 0x03, 0xe1, 0x3d, 0xf0, 0x1b,
  0xde, 0xf1, 0xf9, 0xf8, 0xfc, 0x3e, 0x2b, 0xfd, 0x25, 0xe6, 0xd2, 0xef,
  0xca, 0x0c, 0x0b, 0xeb, 0x0c, 0x0f, 0xb3, 0xe2, 0xf1, 0x33, 0x2f, 0x02,
  0xe9, 0x06, 0xe7, 0xeb, 0xee, 0x18, 0xf5, 0x27, 0xf2, 0xd9, 0xe7, 0xf0,
  0xed, 0x25, 0x05, 0xe7, 0xdd, 0x16, 0xa8, 0x08, 0xc3, 0x0d, 0xfb, 0x24,
  0x0d, 0x07, 0xcb, 0xdb, 0xbb, 0x0e, 0x36, 0x2e, 0xf8, 0x2f, 0xeb, 0x02,
  0xd8, 0x35, 0x0f, 0xf0, 0xe9, 0x1f, 0x19, 0x16, 0xf7, 0xff, 0xed, 0x0d,
  0xee, 0x00, 0xeb, 0xe9, 0xd3, 0x0d, 0x1c, 0xec, 0xe8, 0x1a, 0xfe, 0xc5,
  0xbb, 0xf6, 0x10, 0xef, 0xc8, 0xee, 0xca, 0xee, 0xc3, 0x07, 0xfb, 0xfb,
  0xde, 0x0b, 0xe1, 0xcd, 0xc1, 0x0c, 0x08, 0xed, 0xe1, 0x13, 0xf9, 0xdb,
  0xc9, 0x43, 0x19, 0x17, 0xdc, 0x0e, 0xe5, 0xd8, 0xb8, 0x08, 0xeb, 0xc2,
  0xda, 0x1b, 0xe3, 0xe0, 0xb7, 0x3d, 0x1c, 0xda, 0xd4, 0x29, 0xfa, 0x02,
  0xb0, 0x07, 0x0e, 0xd1, 0xb1, 0xf9, 0x0a, 0x02, 0x9c, 0x0e, 0x29, 0xf3,
  0xaa, 0x01, 0x03, 0x3b, 0xa8, 0xf4, 0xd5, 0xdc, 0xc1, 0xe1, 0xd9, 0x22,
  0xa9, 0x38, 0xd5, 0xbe, 0xda, 0xe8, 0xff, 0x33, 0xa7, 0x27, 0xfb, 0xf9,
  0xe3, 0x22, 0xc6, 0x49, 0xb9, 0x33, 0xea, 0xd1, 0xf9, 0xe1, 0x0d, 0x5a,
  0x85, 0x0e, 0xea, 0xc8, 0xcc, 0x2c, 0xe9, 0x36, 0x9f, 0x40, 0x11, 0xe1,
  0xcf, 0xec, 0x04, 0x42, 0x96, 0x11, 0x1f, 0xd2, 0xfd, 0xf8, 0xfc, 0x33,
  0xc3, 0x48, 0xf0, 0x03, 0x0e, 0xf4, 0xe3, 0x4b, 0xad, 0xea, 0xe8, 0xca,
  0xcd, 0x13, 0x09, 0x4e, 0xc4, 0x23, 0x2e, 0xdb, 0xe9, 0xe6, 0xda, 0x29,
  0xe1, 0x0f, 0xeb, 0xee, 0x0d, 0xd7, 0xd1, 0x1a, 0xf0, 0x27, 0xe4, 0xfc,
  0xeb, 0xd7, 0x26, 0xfe, 0xce, 0xdd, 0xfe, 0x13, 0x24, 0xf5, 0xfd, 0x11,
  0x0a, 0x25, 0xf5, 0xfe, 0xfc, 0xe8, 0x05, 0xe1, 0x23, 0x1f, 0xeb, 0x05,
  0x26, 0x16, 0x26, 0x25, 0xec, 0xde, 0xdd, 0xea, 0xea, 0xfc, 0x04, 0x05,
  0xdf, 0xe8, 0x0d, 0xd3, 0xe5, 0x07, 0x2e, 0xe2, 0xe8, 0x2b, 0xec, 0xe0,
  0x1c, 0x15, 0x02, 0x09, 0x29, 0x0b, 0xe6, 0xfe, 0x04, 0x0a, 0x20, 0x27,
  0x0f, 0x1c, 0xe4, 0xfb, 0x02, 0x12, 0xe0, 0xf2, 0xdd, 0xeb, 0xdc, 0xe3,
  0x0a, 0xd9, 0xef, 0xf1, 0xcd, 0xee, 0x15, 0xfa, 0xcf, 0x23, 0xe8, 0xeb,
  0xf3, 0xf1, 0xee, 0x16, 0x1b, 0x16, 0x05, 0x07, 0xce, 0xf9, 0xea, 0xe4,
  0x31, 0x19, 0x24, 0x28, 0xf5, 0xdd, 0xe2, 0xda, 0xed, 0x1d, 0x1a, 0xee,
  0xff, 0xd5, 0xfc, 0x0d, 0xdf, 0xf0, 0x07, 0x04, 0xfe, 0xf6, 0xdb, 0xef,
  0x0f, 0x00, 0xee, 0xf1, 0x11, 0x09, 0xe1, 0x14, 0x19, 0x0f, 0x0b, 0xed,
  0xd0, 0x18, 0x0e, 0xe6, 0x03, 0x0a, 0xfa, 0x18, 0x15, 0x08, 0xfb, 0xfc,
  0xf5, 0xda, 0x09, 0xef, 0xf4, 0x03, 0xdd, 0xf0, 0xd7, 0xe2, 0x01, 0xff,
  0x0b, 0xf9, 0xec, 0xff, 0xe6, 0xf8, 0xef, 0xef, 0xf1, 0x2e, 0x25, 0xe4,
  0xea, 0xfc, 0x13, 0x25, 0x18, 0x12, 0x34, 0xe4, 0x21, 0x0e, 0xea, 0x04,
  0xe4, 0x2f, 0xeb, 0xda, 0xfa, 0xe1, 0xcb, 0xd9, 0xf6, 0xe4, 0x28, 0x09,
  0xce, 0xfa, 0xea, 0xe8, 0xdf, 0xde, 0xe4, 0x1a, 0xdc, 0x02, 0x06, 0x12,
  0xf2, 0x18, 0xea, 0xf0, 0x18, 0xfa, 0xfd, 0xfc, 0x20, 0xfc, 0xe6, 0x23,
  0x0a, 0xea, 0xe1, 0x0a, 0xf5, 0x20, 0x23, 0x0d, 0xf2, 0x1b, 0xf9, 0x0b,
  0xe0, 0x0e, 0x0d, 0x0c, 0xfe, 0x02, 0xcf, 0xcd, 0xf5, 0x22, 0xf5, 0xee,
  0xd1, 0x04, 0xe5, 0xee, 0xba, 0x07, 0xf6, 0x23, 0xb9, 0xec, 0x16, 0xc9,
  0x00, 0xf8, 0xe7, 0xee, 0xcb, 0xe9, 0x06, 0xe0, 0xf9, 0xe2, 0xf1, 0xcf,
  0xcb, 0x0d, 0x0c, 0x18, 0xeb, 0x14, 0xff, 0x0b, 0x07, 0x14, 0x27, 0x15,
  0xe0, 0x36, 0x1a, 0xe2, 0xf5, 0x1e, 0xd7, 0xff, 0xe2, 0xe4, 0xd9, 0x0a,
  0xc3, 0x1b, 0x19, 0xec, 0xd1, 0x14, 0xf6, 0xe6, 0xb3, 0x00, 0x05, 0x11,
  0xc8, 0xe2, 0xf4, 0x13, 0xb6, 0xed, 0xef, 0x18, 0xc6, 0x13, 0xea, 0xe3,
  0xd2, 0x1e, 0xed, 0x36, 0xf3, 0xea, 0x0b, 0xf0, 0xf1, 0x14, 0xd6, 0xf4,
  0xcc, 0x19, 0x17, 0xd6, 0xc4, 0x29, 0x1b, 0xed, 0xe5, 0xe3, 0xd9, 0xe0,
  0xf5, 0x2f, 0xf5, 0xe7, 0xd0, 0x23, 0xfb, 0x04, 0xc6, 0x31, 0xf6, 0x19,
  0xc3, 0x1e, 0xf3, 0xe9, 0xc9, 0xeb, 0xe2, 0xf5, 0xda, 0x18, 0xf4, 0xd8,
  0xfa, 0xe5, 0xee, 0x21, 0xf5, 0xfd, 0x08, 0x10, 0xe4, 0x09, 0xf2, 0xed,
  0xe1, 0x11, 0xf9, 0xd6, 0xc8, 0xe7, 0xd9, 0xff, 0xe1, 0x11, 0xcb, 0x28,
  0x02, 0xfd, 0xd5, 0xfb, 0xf3, 0xfc, 0x0b, 0x18, 0xc7, 0xfc, 0xc7, 0x06,
  0xff, 0xfe, 0xdc, 0xe9, 0xe0, 0xed, 0xf5, 0xd5, 0xed, 0x3e, 0x12, 0xe3,
  0xf9, 0xe8, 0xf5, 0xed, 0xfc, 0x48, 0xf7, 0xd4, 0xd6, 0x1d, 0x16, 0x04,
  0xf8, 0x2e, 0xc7, 0x09, 0xeb, 0xfa, 0xf4, 0xfe, 0x06, 0x15, 0x15, 0xfd,
  0xed, 0xf5, 0xda, 0xee, 0x10, 0x1e, 0x23, 0xf1, 0xdc, 0x05, 0xe2, 0x1d,
  0xfd, 0x03, 0xdf, 0xd2, 0xeb, 0x34, 0xf6, 0x48, 0xc8, 0x1a, 0x01, 0xf5,
  0xe5, 0x14, 0xf7, 0x27, 0xf5, 0xfb, 0xfe, 0xe2, 0xf3, 0x07, 0xf8, 0x31,
  0x0e, 0x13, 0xea, 0xc2, 0x0c, 0x2f, 0xeb, 0x0c, 0xf1, 0xf0, 0x0f, 0xfb,
  0xeb, 0x3a, 0x2f, 0x14, 0xfd, 0xeb, 0xfb, 0xec, 0xca, 0x03, 0xf5, 0x12,
  0xfd, 0x0d, 0x1b, 0xec, 0x23, 0x48, 0x0a, 0x23, 0x1d, 0x16, 0x1e, 0xe9,
  0xf9, 0x05, 0x26, 0xec, 0x2a, 0xcc, 0x12, 0xd5, 0xdd, 0x44, 0xed, 0x13,
  0xfa, 0xd0, 0x1a, 0xe8, 0x1f, 0x06, 0x0b, 0x2b, 0x12, 0x0c, 0x19, 0xe3,
  0xf4, 0x29, 0x0b, 0x00, 0x1c, 0xf9, 0xf2, 0xd0, 0x10, 0x05, 0xfb, 0x2f,
  0x3f, 0xec, 0xf0, 0x1f, 0xf3, 0xf2, 0x31, 0x0a, 0x28, 0x1e, 0xe6, 0xdf,
  0xef, 0xf1, 0x05, 0xe5, 0x55, 0xed, 0xe6, 0x22, 0x1b, 0xef, 0x17, 0x10,
  0x1c, 0x0b, 0x13, 0xf8, 0x08, 0x2a, 0x0d, 0xe8, 0x11, 0xdd, 0xe7, 0x27,
  0x2b, 0xf4, 0x42, 0xe9, 0x54, 0xd3, 0xde, 0x29, 0x09, 0xeb, 0x49, 0x20,
  0x2d, 0xf9, 0x08, 0x24, 0x2d, 0x2e, 0x37, 0x28, 0x27, 0xea, 0x19, 0x11,
  0x15, 0xfe, 0xec, 0x0f, 0x4f, 0xfb, 0xec, 0x14, 0xfb, 0x1c, 0x00, 0x20,
  0x2c, 0xc9, 0xf4, 0xfe, 0x29, 0xd5, 0x37, 0xff, 0x40, 0xf0, 0xfe, 0x12,
  0x1c, 0x15, 0x29, 0x0d, 0x2f, 0xd0, 0xc5, 0x30, 0x09, 0xd9, 0x11, 0xde,
  0x5f, 0xf4, 0xe9, 0x2d, 0x26, 0x08, 0x1f, 0x02, 0x28, 0xba, 0xe9, 0x1d,
  0x04, 0xeb, 0x02, 0xf6, 0x38, 0x05, 0xea, 0x08, 0x00, 0x04, 0x1c, 0xce,
  0x57, 0xc8, 0x0b, 0x1a, 0x13, 0xdf, 0x02, 0xfb, 0x68, 0x01, 0xe2, 0xf1,
  0x12, 0xec, 0xfc, 0xf5, 0x40, 0xef, 0xfd, 0x07, 0x21, 0xdb, 0x15, 0x0e,
  0x58, 0x00, 0xea, 0x22, 0xff, 0xf9, 0x09, 0xf3, 0x2c, 0xec, 0x0a, 0xf5,
  0xff, 0x12, 0x17, 0xf1, 0x48, 0xcd, 0xd1, 0x01, 0x19, 0x08, 0xf2, 0xe7,
  0x1f, 0xc3, 0xee, 0x0d, 0x48, 0x12, 0x30, 0xd3, 0x31, 0xdc, 0xdf, 0xee,
  0x11, 0xf1, 0xfe, 0xd8, 0x27, 0xee, 0xd5, 0x00, 0xff, 0x06, 0x2b, 0xf3,
  0x5e, 0xdf, 0x1b, 0x29, 0x0c, 0xfb, 0x2e, 0xf2, 0x21, 0xb3, 0x04, 0xf4,
  0x01, 0x07, 0x0d, 0xd4, 0x2e, 0xdf, 0xe6, 0x0a, 0x2c, 0xf3, 0x01, 0x08,
  0x16, 0xd3, 0xe5, 0x08, 0x05, 0x00, 0x38, 0xc7, 0x42, 0xfa, 0xf1, 0x17,
  0xf4, 0x1f, 0x42, 0xd2, 0x3b, 0xd1, 0xd8, 0x27, 0xf5, 0xde, 0x19, 0xce,
  0x1c, 0xfd, 0xfb, 0x28, 0xff, 0xdd, 0x1f, 0xc9, 0x15, 0x23, 0xee, 0xf4,
  0x22, 0xf0, 0xed, 0x13, 0xf2, 0xed, 0xed, 0x02, 0x0b, 0xf0, 0xc8, 0x05,
  0x3d, 0xe8, 0xc5, 0x25, 0x06, 0xf5, 0xf1, 0xe0, 0xee, 0x16, 0xd8, 0x31,
  0xf7, 0x0a, 0xf7, 0x10, 0x41, 0x05, 0xe4, 0x08, 0xee, 0x00, 0xdb, 0xf1,
  0x06, 0x1c, 0xef, 0x0a, 0xd6, 0xdc, 0xfc, 0xd2, 0x35, 0x2e, 0xf7, 0xf8,
  0xe9, 0xfd, 0xc4, 0xf9, 0x29, 0x27, 0x03, 0x25, 0x27, 0x03, 0xf2, 0xff,
  0x1b, 0x2e, 0x0b, 0x0c, 0x15, 0xef, 0xdf, 0xf4, 0x3d, 0xfc, 0xdc, 0x34,
  0xec, 0xcc, 0xb7, 0xd1, 0x1b, 0x3e, 0x1c, 0xfe, 0xdb, 0x13, 0xb7, 0x0e,
  0x3e, 0x21, 0xe2, 0x2e, 0xe1, 0xfc, 0xb8, 0x10, 0x03, 0x0a, 0xf6, 0x07,
  0xf2, 0xee, 0xbc, 0xf5, 0x11, 0x1b, 0xe4, 0x17, 0xfc, 0x02, 0xd3, 0x0d,
  0x46, 0x1a, 0x0c, 0xfc, 0xed, 0x15, 0xbf, 0xcd, 0x1a, 0x34, 0xf5, 0xf7,
  0xee, 0xf8, 0xb4, 0xf4, 0x2e, 0x39, 0xee, 0xeb, 0xe8, 0xf1, 0xb4, 0xe8,
  0xf8, 0x15, 0x06, 0xf6, 0xe6, 0xee, 0xd5, 0xf4, 0x0d, 0xf7, 0x01, 0x2a,
  0xc8, 0x0d, 0xeb, 0xfe, 0x20, 0x2c, 0xde, 0x08, 0xb6, 0xd1, 0xea, 0xcd,
  0x0e, 0x09, 0x0f, 0x00, 0xb5, 0xe3, 0xd6, 0xcf, 0xfc, 0x1c, 0x0b, 0xe9,
  0xba, 0x13, 0xdb, 0xe3, 0xed, 0x24, 0xec, 0x29, 0x00, 0x2b, 0xfc, 0xfe,
  0xf7, 0x2c, 0x05, 0xfd, 0xdd, 0xd8, 0x16, 0xfd, 0xfd, 0x0d, 0x15, 0x13,
  0xf2, 0x0b, 0xd5, 0xdd, 0x21, 0x31, 0x09, 0x20, 0xd4, 0xc8, 0xd9, 0xe9,
  0xfb, 0x0b, 0x1e, 0x01, 0xe6, 0x0d, 0xf0, 0xd1, 0xf9, 0x27, 0x12, 0x27,
  0xe5, 0xdf, 0x01, 0xf2, 0xec, 0xed, 0x35, 0xf9, 0xfa, 0xe6, 0xd4, 0xf7,
  0x14, 0x1f, 0x0c, 0x1c, 0xe0, 0x0f, 0xf4, 0xd9, 0xe9, 0xfa, 0x22, 0x34,
  0xec, 0x0a, 0xf0, 0xe0, 0xf1, 0xfd, 0xf5, 0xf7, 0xff, 0xf0, 0xef, 0x1e,
  0xeb, 0x3a, 0x1c, 0xf2, 0x24, 0xea, 0x0e, 0xd3, 0xd9, 0x32, 0x10, 0xe1,
  0xe5, 0x0d, 0xdb, 0xd8, 0x0b, 0xff, 0xe4, 0x1c, 0xe3, 0x0a, 0xcc, 0xdb,
  0x01, 0x35, 0x30, 0xed, 0xdf, 0x2a, 0xc2, 0x07, 0x13, 0x1b, 0xfe, 0x13,
  0xdc, 0xe7, 0xe2, 0xd8, 0xf8, 0x37, 0x41, 0x2f, 0xde, 0xe8, 0xc6, 0xed,
  0xca, 0x12, 0x0d, 0xfc, 0xa7, 0xef, 0xd4, 0xcf, 0xde, 0x20, 0xfa, 0x0e,
  0xd0, 0x08, 0xd2, 0xfd, 0xd6, 0x42, 0x3b, 0xe3, 0xc1, 0x0b, 0xde, 0xee,
  0x0a, 0x40, 0x2e, 0xf9, 0xca, 0xed, 0xe4, 0xc7, 0xf8, 0x33, 0x2e, 0xfd,
  0xa4, 0x0a, 0xe0, 0x0e, 0xfa, 0x1f, 0x19, 0x1a, 0xe3, 0xdc, 0xbd, 0xef,
  0xbf, 0x20, 0x17, 0xd7, 0x97, 0x18, 0x04, 0x14, 0xe3, 0x2e, 0xfe, 0xef,
  0xc6, 0xf0, 0xfa, 0x18, 0xe9, 0x21, 0x3a, 0xf5, 0xb3, 0x0b, 0x0a, 0xea,
  0xf1, 0x57, 0x62, 0xe3, 0xc0, 0x00, 0xdc, 0x27, 0x1a, 0x50, 0x6a, 0xec,
  0xb5, 0x2c, 0xf7, 0x0d, 0x01, 0x1b, 0x40, 0xf1, 0xde, 0x43, 0xd5, 0x2d,
  0x20, 0x36, 0x5a, 0xff, 0xc4, 0x01, 0x05, 0x24, 0x32, 0x2f, 0x2a, 0x20,
  0xc2, 0x0d, 0xdd, 0x1f, 0x15, 0x24, 0x64, 0x05, 0xdd, 0x1e, 0x16, 0xee,
  0xff, 0x20, 0x44, 0xf8, 0xdb, 0x02, 0xfb, 0xf0, 0x30, 0x28, 0x11, 0x03,
  0xe3, 0xfd, 0x0b, 0xed, 0x1e, 0xeb, 0x16, 0x25, 0xf7, 0x07, 0x1b, 0xf7,
  0x23, 0x1e, 0x32, 0x18, 0xf1, 0xf7, 0x1a, 0xba, 0x24, 0x0d, 0x16, 0x21,
  0x0c, 0xe1, 0xfb, 0xf7, 0x0f, 0xcf, 0x09, 0x1d, 0x0e, 0xe2, 0x13, 0xe1,
  0x0b, 0xf6, 0x10, 0x0e, 0x06, 0x15, 0x27, 0xc5, 0x11, 0xf3, 0xee, 0x32,
  0xfc, 0xb9, 0x45, 0x0f, 0xf5, 0x01, 0x1f, 0x0a, 0xf8, 0xe3, 0x3e, 0x0e,
  0xf1, 0xf7, 0x13, 0xe8, 0xf1, 0xcf, 0x30, 0xd9, 0xcb, 0x11, 0x0e, 0x2f,
  0xf3, 0xcf, 0xfb, 0x0e, 0xf7, 0x0d, 0x25, 0x1c, 0xff, 0xeb, 0x19, 0x1f,
  0x04, 0xe8, 0xf0, 0x0d, 0xf1, 0xe9, 0x11, 0xf6, 0xfa, 0xee, 0xf9, 0x15,
  0xf7, 0xcc, 0x30, 0xef, 0xcf, 0xf8, 0xef, 0x29, 0xff, 0x12, 0xff, 0xee,
  0xf3, 0x16, 0x0f, 0x27, 0xed, 0x0c, 0x2d, 0x1f, 0xdc, 0xff, 0xee, 0xf6,
  0x1b, 0x18, 0x39, 0xd6, 0xef, 0x0b, 0x0f, 0xda, 0x00, 0x00, 0x03, 0x0e,
  0x0b, 0xf4, 0xca, 0xf7, 0x19, 0xd7, 0x29, 0xd1, 0xc1, 0x0a, 0x0c, 0xf1,
  0x07, 0xec, 0x00, 0x0d, 0xcc, 0x0b, 0xeb, 0xe6, 0x1e, 0x12, 0x0e, 0x08,
  0xfb, 0xeb, 0xcc, 0x0a, 0xfb, 0xe6, 0x1a, 0x29, 0xd0, 0xc3, 0xf9, 0xdc,
  0xf1, 0xdb, 0x3b, 0x1d, 0xe2, 0xd5, 0xbe, 0xd9, 0xfb, 0xc6, 0x2e, 0x34,
  0xbb, 0xa1, 0xde, 0xd9, 0x30, 0xea, 0x56, 0xf3, 0xcc, 0xaa, 0xbe, 0xc5,
  0x32, 0xf5, 0x52, 0x10, 0xb2, 0xc9, 0xe1, 0x04, 0x49, 0x0a, 0x64, 0xf1,
  0xe1, 0x9e, 0x0a, 0xe0, 0x44, 0xd1, 0x36, 0x20, 0xd2, 0x88, 0xf6, 0xf4,
  0x1d, 0xb8, 0x26, 0x00, 0xb6, 0xc9, 0x01, 0xe7, 0x43, 0xe4, 0x58, 0x1c,
  0xf0, 0xcf, 0xbc, 0xc8, 0x3e, 0xda, 0x36, 0x30, 0xed, 0xdd, 0xe8, 0xdc,
  0x2b, 0xe9, 0x20, 0x04, 0xea, 0xce, 0xd7, 0x0b, 0x64, 0xee, 0x21, 0x00,
  0xd3, 0xda, 0x03, 0x06, 0x5b, 0xf9, 0x2f, 0x35, 0xc5, 0x9d, 0xe4, 0xd5,
  0x3f, 0xea, 0x1d, 0x14, 0xb5, 0x94, 0xe4, 0xee, 0x7f, 0x0e, 0x29, 0x0e,
  0xe0, 0xa5, 0xfc, 0xf7, 0x4e, 0xfe, 0x28, 0x23, 0xe4, 0xd3, 0xe5, 0xe8,
  0x73, 0xfb, 0x32, 0x24, 0xd2, 0xaa, 0xff, 0x07, 0x3e, 0x0a, 0x33, 0x11,
  0xd1, 0xa1, 0xf1, 0xe3, 0x69, 0x16, 0x13, 0x0b, 0xf9, 0x9c, 0xf6, 0xf0,
  0x6a, 0xe1, 0x44, 0x2c, 0xeb, 0xc7, 0xda, 0xf0, 0x77, 0x02, 0x17, 0x24,
  0xc8, 0xab, 0xd7, 0xfe, 0x62, 0xda, 0x19, 0x2d, 0x01, 0xb8, 0xe6, 0xf4,
  0x4f, 0x1b, 0x47, 0x38, 0xdf, 0x96, 0x00, 0xca, 0x7c, 0xf1, 0x09, 0x3e,
  0x03, 0xbe, 0xd1, 0xf8, 0x2a, 0x0c, 0x40, 0x36, 0x10, 0x9c, 0xcf, 0x03,
  0x79, 0x18, 0x24, 0xf9, 0xea, 0xd7, 0x08, 0xc9, 0xd5, 0xff, 0x31, 0x13,
  0x09, 0xde, 0x23, 0xc9, 0x0b, 0x06, 0x05, 0x0e, 0xe7, 0x07, 0xea, 0x00,
  0xdc, 0xf1, 0x48, 0x1c, 0xbf, 0xee, 0xdc, 0x18, 0xfe, 0x05, 0x30, 0x3c,
  0xfa, 0xf6, 0x26, 0x10, 0x19, 0x12, 0x3b, 0xf8, 0xbd, 0x06, 0x03, 0x02,
  0xd1, 0x0c, 0x47, 0x0a, 0xf9, 0x0c, 0xe9, 0xce, 0xe8, 0xf2, 0x1c, 0x24,
  0xfa, 0x11, 0xe6, 0xf5, 0x2e, 0x02, 0xf0, 0x27, 0xc1, 0xcf, 0xff, 0x15,
  0x2a, 0xf8, 0x08, 0x0b, 0xe3, 0xeb, 0xe2, 0xf1, 0xf2, 0x1a, 0x06, 0x2a,
  0xed, 0xdb, 0xe9, 0x03, 0x02, 0xfd, 0x47, 0xf9, 0xb7, 0xe0, 0xe9, 0xd9,
  0x0c, 0x19, 0x2d, 0x3c, 0xb3, 0xc9, 0xe7, 0x02, 0x22, 0x0b, 0x33, 0x00,
  0xfd, 0xbb, 0x10, 0xd7, 0x1b, 0xde, 0x38, 0x1d, 0xeb, 0xce, 0xf7, 0xf6,
  0x2e, 0xe0, 0x09, 0x1f, 0xee, 0xd2, 0x0f, 0xfb, 0x2a, 0xfb, 0x17, 0x33,
  0xea, 0xbf, 0xe5, 0xc0, 0x28, 0x1a, 0x3e, 0x1f, 0xf4, 0xb5, 0x05, 0xd6,
  0x00, 0xe7, 0x38, 0x19, 0xcf, 0xe0, 0x0d, 0xd0, 0xfe, 0x01, 0x1c, 0x0c,
  0xc9, 0xd4, 0xf6, 0xdf, 0x0a, 0xe5, 0x15, 0x2b, 0xdb, 0xc1, 0xe6, 0x06,
  0x0f, 0x11, 0x09, 0x16, 0xd0, 0xc1, 0x11, 0xea, 0xdb, 0x10, 0x07, 0x43,
  0x0c, 0xee, 0x0a, 0xe8, 0xe6, 0x1c, 0x03, 0x20, 0x14, 0xf1, 0xf2, 0xdd,
  0xec, 0x19, 0x29, 0xfc, 0xe5, 0xec, 0x03, 0xe4, 0x14, 0x0b, 0x30, 0x36,
  0x0d, 0xf5, 0x19, 0xed, 0xe7, 0x1e, 0x11, 0x12, 0x04, 0xf9, 0x1e, 0xc9,
  0xea, 0xd7, 0x1b, 0x13, 0xef, 0xcf, 0xfa, 0xc1, 0x0d, 0x1f, 0x1b, 0x3e,
  0x0e, 0xcc, 0xe9, 0xe0, 0x0f, 0xd4, 0x1c, 0x16, 0xff, 0xeb, 0xf9, 0xcf,
  0x12, 0x1a, 0x05, 0xf3, 0xde, 0x0a, 0x04, 0xca, 0xd5, 0xff, 0x47, 0x28,
  0xfd, 0xbf, 0x15, 0x06, 0xf6, 0xdf, 0x1f, 0x2e, 0xf2, 0xbf, 0xea, 0xc1,
  0xe1, 0x01, 0x3c, 0x05, 0xe3, 0xf0, 0xdc, 0xe8, 0x1f, 0x23, 0x1b, 0x04,
  0x1d, 0xc5, 0x11, 0xf4, 0x14, 0xf3, 0x50, 0x1d, 0xec, 0x0c, 0x12, 0x11,
  0xf5, 0x0c, 0x14, 0x2b, 0xf6, 0xf0, 0x0e, 0xda, 0x4a, 0x1c, 0x2f, 0x00,
  0xe9, 0xc7, 0xfe, 0x0c, 0xe1, 0xf9, 0x1f, 0x24, 0xe4, 0xbd, 0xf8, 0x1a,
  0x38, 0xfd, 0x33, 0x11, 0xe7, 0xd8, 0xd5, 0x1d, 0x30, 0xcc, 0x0d, 0x16,
  0x19, 0xf6, 0xe2, 0x2b, 0x05, 0xef, 0x02, 0xe9, 0xf4, 0xe2, 0xf0, 0x21,
  0x26, 0xc2, 0x37, 0xcb, 0x02, 0xbc, 0xca, 0x0d, 0xff, 0xed, 0x07, 0xcc,
  0xf9, 0xe8, 0xbb, 0x18, 0x07, 0xc7, 0x05, 0xdf, 0xe2, 0xd6, 0xcb, 0x25,
  0xe5, 0xcf, 0xff, 0xce, 0xda, 0xc7, 0xdf, 0x1a, 0x14, 0xe9, 0x0d, 0xf1,
  0x10, 0xff, 0xdc, 0xe3, 0xe9, 0xeb, 0x2e, 0xe9, 0xf5, 0xcf, 0xca, 0x16,
  0xe6, 0xf1, 0xef, 0x03, 0xdb, 0xdd, 0xcc, 0x03, 0x0f, 0xe9, 0xfc, 0xfb,
  0xff, 0xc9, 0xde, 0xdc, 0x0b, 0xf0, 0x38, 0xf7, 0x0e, 0xc6, 0xe4, 0xf2,
  0x14, 0x04, 0x12, 0xeb, 0x02, 0xeb, 0xe2, 0xf2, 0x22, 0xe9, 0x0c, 0xf8,
  0xe9, 0xee, 0xd4, 0x21, 0x00, 0xed, 0x45, 0xef, 0xcf, 0xda, 0xff, 0xea,
  0x38, 0x0b, 0x2c, 0xd9, 0x13, 0xbf, 0xcc, 0x22, 0x2c, 0xe0, 0x05, 0x1a,
  0xf6, 0xe3, 0xea, 0xf3, 0x1e, 0x01, 0xed, 0xe3, 0x0b, 0xe2, 0x0d, 0xd2,
  0x0c, 0x09, 0x2b, 0xe8, 0x1d, 0xce, 0xee, 0xd9, 0x35, 0xcf, 0x10, 0xf3,
  0x21, 0xe6, 0x24, 0x01, 0x0e, 0xfd, 0x16, 0x00, 0x25, 0xf2, 0x02, 0x14,
  0x31, 0xd8, 0xf4, 0xe7, 0x10, 0xf9, 0xd8, 0x04, 0x1d, 0x05, 0x03, 0x23,
  0x31, 0xff, 0x0c, 0x13, 0x2a, 0x07, 0x0e, 0x1e, 0x2f, 0x1a, 0x06, 0x00,
  0xfb, 0xd9, 0xca, 0xf4, 0x1e, 0xea, 0xe0, 0x30, 0xd3, 0xfb, 0xd5, 0x12,
  0x03, 0x2b, 0xf1, 0x1b, 0x18, 0xd3, 0xf3, 0xf7, 0x06, 0x27, 0xf2, 0xeb,
  0x00, 0x0d, 0x02, 0xea, 0xf8, 0x01, 0x08, 0x1b, 0xe7, 0xe1, 0xb6, 0x0f,
  0x02, 0xe3, 0xfe, 0x2a, 0x03, 0x1a, 0xcb, 0x0b, 0x3a, 0x22, 0x11, 0xed,
  0xd6, 0x0a, 0xc6, 0xd4, 0x35, 0x10, 0x21, 0x2d, 0xfa, 0x06, 0xc7, 0xc9,
  0xf7, 0x0d, 0x08, 0xea, 0xbc, 0xdf, 0xc3, 0x09, 0x1a, 0x30, 0x17, 0x09,
  0xc2, 0xea, 0xe7, 0xee, 0x29, 0x19, 0x1a, 0x00, 0xea, 0xf0, 0xda, 0x04,
  0x1c, 0x2f, 0xe0, 0xfc, 0xf9, 0xe3, 0xf8, 0x14, 0xff, 0x3e, 0x27, 0x00,
  0xdc, 0x07, 0xe2, 0x0f, 0x23, 0x41, 0xfb, 0xdc, 0xc1, 0xeb, 0xe1, 0x15,
  0x2e, 0x15, 0xf0, 0xc3, 0xf4, 0xfd, 0xdf, 0x16, 0x20, 0x49, 0x15, 0x0f,
  0xf5, 0xfb, 0xfe, 0xf3, 0x01, 0x49, 0x24, 0xee, 0xba, 0x24, 0xca, 0x2d,
  0x1b, 0x28, 0x40, 0xe1, 0xb4, 0x0f, 0xee, 0x10, 0x30, 0x37, 0x12, 0xe4,
  0xd1, 0xfc, 0xe7, 0xdc, 0x2d, 0x57, 0x21, 0xf2, 0xc4, 0x00, 0xf6, 0xe2,
  0x29, 0x40, 0x39, 0x1f, 0xd8, 0x17, 0xd7, 0x03, 0x2f, 0x5c, 0x37, 0x21,
  0xd9, 0x1e, 0xde, 0xdf, 0x1e, 0x60, 0x17, 0x15, 0xa1, 0x1d, 0xb9, 0xe9,
  0x20, 0x60, 0x41, 0x29, 0x9a, 0xe0, 0xdc, 0x24, 0x36, 0x53, 0x0d, 0x05,
  0xd5, 0xf9, 0xb9, 0xf4, 0x4e, 0x31, 0x41, 0x0c, 0xdc, 0xeb, 0xdb, 0x04,
  0x30, 0x32, 0x4f, 0xe6, 0x9c, 0x26, 0xad, 0xd8, 0x28, 0x57, 0xf7, 0x23,
  0xba, 0xf0, 0xcf, 0xc5, 0x49, 0x64, 0x2e, 0x2e, 0xa7, 0x1f, 0xcd, 0xf8,
  0x4b, 0x38, 0x1c, 0x43, 0xcc, 0x16, 0xbd, 0xdd, 0x3f, 0x39, 0x33, 0x28,
  0xb2, 0xd8, 0xec, 0xe5, 0x55, 0x39, 0x12, 0x2b, 0x9e, 0x02, 0xa1, 0xcc,
  0x38, 0x1e, 0xf3, 0x02, 0xcb, 0xe2, 0xaf, 0xd1, 0x41, 0x3b, 0x0f, 0x10,
  0xc4, 0xe4, 0xf0, 0xe2, 0x3c, 0x6f, 0x20, 0x17, 0xb7, 0x1f, 0xdc, 0xc8,
  0x49, 0x4d, 0xeb, 0x3e, 0x9c, 0xf4, 0xf5, 0xf6, 0x56, 0x59, 0xf4, 0x1d,
  0x81, 0xe8, 0x99, 0xb0, 0x17, 0x1a, 0x2f, 0x29, 0xd0, 0x1a, 0xe0, 0xe6,
  0x22, 0xff, 0xff, 0xff, 0x04, 0x00, 0x00, 0x00, 0x10, 0x00, 0x00, 0x00,
  0xd7, 0xfc, 0xff, 0xff, 0x9e, 0xfd, 0xff, 0xff, 0xa7, 0x08, 0x00, 0x00,
  0x5d, 0xfd, 0xff, 0xff, 0x3e, 0xff, 0xff, 0xff, 0x04, 0x00, 0x00, 0x00,
  0x08, 0x00, 0x00, 0x00, 0xff, 0xff, 0xff, 0xff, 0x20, 0x03, 0x00, 0x00,
  0x70, 0xf2, 0xff, 0xff, 0x74, 0xf2, 0xff, 0xff, 0x0f, 0x00, 0x00, 0x00,
  0x4d, 0x4c, 0x49, 0x52, 0x20, 0x43, 0x6f, 0x6e, 0x76, 0x65, 0x72, 0x74,
  0x65, 0x64, 0x2e, 0x00, 0x01, 0x00, 0x00, 0x00, 0x14, 0x00, 0x00, 0x00,
  0x00, 0x00, 0x0e, 0x00, 0x18, 0x00, 0x14, 0x00, 0x10, 0x00, 0x0c, 0x00,
  0x08, 0x00, 0x04, 0x00, 0x0e, 0x00, 0x00, 0x00, 0x14, 0x00, 0x00, 0x00,
  0x1c, 0x00, 0x00, 0x00, 0xf4, 0x01, 0x00, 0x00, 0xf8, 0x01, 0x00, 0x00,
  0xfc, 0x01, 0x00, 0x00, 0x04, 0x00, 0x00, 0x00, 0x6d, 0x61, 0x69, 0x6e,
  0x00, 0x00, 0x00, 0x00, 0x06, 0x00, 0x00, 0x00, 0xbc, 0x01, 0x00, 0x00,
  0xf8, 0x00, 0x00, 0x00, 0xb8, 0x00, 0x00, 0x00, 0x74, 0x00, 0x00, 0x00,
  0x28, 0x00, 0x00, 0x00, 0x04, 0x00, 0x00, 0x00, 0x62, 0xff, 0xff, 0xff,
  0x0c, 0x00, 0x00, 0x00, 0x10, 0x00, 0x00, 0x00, 0x05, 0x00, 0x00, 0x00,
  0x01, 0x00, 0x00, 0x00, 0x1c, 0x00, 0x00, 0x00, 0x01, 0x00, 0x00, 0x00,
  0x1b, 0x00, 0x00, 0x00, 0xc6, 0xff, 0xff, 0xff, 0x1c, 0x00, 0x00, 0x00,
  0x00, 0x00, 0x00, 0x09, 0x1c, 0x00, 0x00, 0x00, 0x20, 0x00, 0x00, 0x00,
  0x04, 0x00, 0x00, 0x00, 0x00, 0x00, 0x06, 0x00, 0x08, 0x00, 0x04, 0x00,
  0x06, 0x00, 0x00, 0x00, 0x00, 0x00, 0x80, 0x3f, 0x01, 0x00, 0x00, 0x00,
  0x1b, 0x00, 0x00, 0x00, 0x01, 0x00, 0x00, 0x00, 0x1a, 0x00, 0x00, 0x00,
  0x00, 0x00, 0x0e, 0x00, 0x18, 0x00, 0x14, 0x00, 0x10, 0x00, 0x0c, 0x00,
  0x0b, 0x00, 0x04, 0x00, 0x0e, 0x00, 0x00, 0x00, 0x14, 0x00, 0x00, 0x00,
  0x00, 0x00, 0x00, 0x08, 0x10, 0x00, 0x00, 0x00, 0x14, 0x00, 0x00, 0x00,
  0x03, 0x00, 0x00, 0x00, 0x64, 0xf3, 0xff, 0xff, 0x01, 0x00, 0x00, 0x00,
  0x1a, 0x00, 0x00, 0x00, 0x03, 0x00, 0x00, 0x00, 0x19, 0x00, 0x00, 0x00,
  0x03, 0x00, 0x00, 0x00, 0x02, 0x00, 0x00, 0x00, 0x00, 0x00, 0x0a, 0x00,
  0x10, 0x00, 0x0c, 0x00, 0x08, 0x00, 0x04, 0x00, 0x0a, 0x00, 0x00, 0x00,
  0x0c, 0x00, 0x00, 0x00, 0x10, 0x00, 0x00, 0x00, 0x02, 0x00, 0x00, 0x00,
  0x01, 0x00, 0x00, 0x00, 0x19, 0x00, 0x00, 0x00, 0x02, 0x00, 0x00, 0x00,
  0x18, 0x00, 0x00, 0x00, 0x01, 0x00, 0x00, 0x00, 0x00, 0x00, 0x16, 0x00,
  0x1c, 0x00, 0x18, 0x00, 0x14, 0x00, 0x10, 0x00, 0x0f, 0x00, 0x08, 0x00,
  0x00, 0x00, 0x00, 0x00, 0x00, 0x00, 0x04, 0x00, 0x16, 0x00, 0x00, 0x00,
  0x18, 0x00, 0x00, 0x00, 0x34, 0x00, 0x00, 0x00, 0x00, 0x00, 0x00, 0x47,
  0x38, 0x00, 0x00, 0x00, 0x3c, 0x00, 0x00, 0x00, 0x01, 0x00, 0x00, 0x00,
  0x05, 0x00, 0x00, 0x00, 0x13, 0x00, 0x00, 0x00, 0x14, 0x00, 0x00, 0x00,
  0x15, 0x00, 0x00, 0x00, 0x16, 0x00, 0x00, 0x00, 0x17, 0x00, 0x00, 0x00,
  0x08, 0x00, 0x0c, 0x00, 0x0b, 0x00, 0x04, 0x00, 0x08, 0x00, 0x00, 0x00,
  0x00, 0x00, 0x20, 0x41, 0x00, 0x00, 0x00, 0x04, 0x01, 0x00, 0x00, 0x00,
  0x18, 0x00, 0x00, 0x00, 0x18, 0x00, 0x00, 0x00, 0x10, 0x00, 0x00, 0x00,
  0x0f, 0x00, 0x00, 0x00, 0x0e, 0x00, 0x00, 0x00, 0x0d, 0x00, 0x00, 0x00,
  0x0c, 0x00, 0x00, 0x00, 0x0b, 0x00, 0x00, 0x00, 0x0a, 0x00, 0x00, 0x00,
  0x09, 0x00, 0x00, 0x00, 0x08, 0x00, 0x00, 0x00, 0xff, 0xff, 0xff, 0xff,
  0xff, 0xff, 0xff, 0xff, 0xff, 0xff, 0xff, 0xff, 0x07, 0x00, 0x00, 0x00,
  0x06, 0x00, 0x00, 0x00, 0x05, 0x00, 0x00, 0x00, 0x04, 0x00, 0x00, 0x00,
  0xff, 0xff, 0xff, 0xff, 0xff, 0xff, 0xff, 0xff, 0x11, 0x00, 0x00, 0x00,
  0x12, 0x00, 0x00, 0x00, 0xff, 0xff, 0xff, 0xff, 0xff, 0xff, 0xff, 0xff,
  0xff, 0xff, 0xff, 0xff, 0xff, 0xff, 0xff, 0xff, 0x00, 0x00, 0x0a, 0x00,
  0x0c, 0x00, 0x00, 0x00, 0x08, 0x00, 0x04, 0x00, 0x0a, 0x00, 0x00, 0x00,
  0x08, 0x00, 0x00, 0x00, 0x0c, 0x00, 0x00, 0x00, 0x01, 0x00, 0x00, 0x00,
  0x10, 0x00, 0x00, 0x00, 0x01, 0x00, 0x00, 0x00, 0x00, 0x00, 0x00, 0x00,
  0x01, 0x00, 0x00, 0x00, 0x1c, 0x00, 0x00, 0x00, 0x01, 0x00, 0x00, 0x00,
  0x00, 0x00, 0x00, 0x00, 0x1d, 0x00, 0x00, 0x00, 0x30, 0x0b, 0x00, 0x00,
  0xc8, 0x0a, 0x00, 0x00, 0x20, 0x0a, 0x00, 0x00, 0xa8, 0x09, 0x00, 0x00,
  0x4c, 0x09, 0x00, 0x00, 0xf0, 0x08, 0x00, 0x00, 0x94, 0x08, 0x00, 0x00,
  0x38, 0x08, 0x00, 0x00, 0xd4, 0x07, 0x00, 0x00, 0x70, 0x07, 0x00, 0x00,
  0x0c, 0x07, 0x00, 0x00, 0xa8, 0x06, 0x00, 0x00, 0x44, 0x06, 0x00, 0x00,
  0xe0, 0x05, 0x00, 0x00, 0x7c, 0x05, 0x00, 0x00, 0x18, 0x05, 0x00, 0x00,
  0xb4, 0x04, 0x00, 0x00, 0x54, 0x04, 0x00, 0x00, 0xd8, 0x03, 0x00, 0x00,
  0x9c, 0x03, 0x00, 0x00, 0x44, 0x03, 0x00, 0x00, 0x08, 0x03, 0x00, 0x00,
  0xc8, 0x02, 0x00, 0x00, 0x5c, 0x02, 0x00, 0x00, 0xcc, 0x01, 0x00, 0x00,
  0x58, 0x01, 0x00, 0x00, 0xbc, 0x00, 0x00, 0x00, 0x50, 0x00, 0x00, 0x00,
  0x04, 0x00, 0x00, 0x00, 0x5a, 0xf5, 0xff, 0xff, 0x00, 0x00, 0x00, 0x01,
  0x10, 0x00, 0x00, 0x00, 0x10, 0x00, 0x00, 0x00, 0x18, 0x00, 0x00, 0x00,
  0x28, 0x00, 0x00, 0x00, 0x44, 0xf5, 0xff, 0xff, 0x19, 0x00, 0x00, 0x00,
  0x53, 0x74, 0x61, 0x74, 0x65, 0x66, 0x75, 0x6c, 0x50, 0x61, 0x72, 0x74,
  0x69, 0x74, 0x69, 0x6f, 0x6e, 0x65, 0x64, 0x43, 0x61, 0x6c, 0x6c, 0x3a,
  0x30, 0x00, 0x00, 0x00, 0x02, 0x00, 0x00, 0x00, 0x01, 0x00, 0x00, 0x00,
  0x04, 0x00, 0x00, 0x00, 0x06, 0xf6, 0xff, 0xff, 0x00, 0x00, 0x00, 0x01,
  0x14, 0x00, 0x00, 0x00, 0x30, 0x00, 0x00, 0x00, 0x17, 0x00, 0x00, 0x00,
  0x00, 0x00, 0x00, 0x09, 0x44, 0x00, 0x00, 0x00, 0x94, 0xf6, 0xff, 0xff,
  0x08, 0x00, 0x00, 0x00, 0x10, 0x00, 0x00, 0x00, 0x01, 0x00, 0x00, 0x00,
  0x80, 0xff, 0xff, 0xff, 0xff, 0xff, 0xff, 0xff, 0x01, 0x00, 0x00, 0x00,
  0x00, 0x00, 0x80, 0x3b, 0x1a, 0x00, 0x00, 0x00, 0x53, 0x74, 0x61, 0x74,
  0x65, 0x66, 0x75, 0x6c, 0x50, 0x61, 0x72, 0x74, 0x69, 0x74, 0x69, 0x6f,
  0x6e, 0x65, 0x64, 0x43, 0x61, 0x6c, 0x6c, 0x3a, 0x30, 0x31, 0x00, 0x00,
  0x02, 0x00, 0x00, 0x00, 0x01, 0x00, 0x00, 0x00, 0x04, 0x00, 0x00, 0x00,
  0x6e, 0xf6, 0xff, 0xff, 0x00, 0x00, 0x00, 0x01, 0x14, 0x00, 0x00, 0x00,
  0x34, 0x00, 0x00, 0x00, 0x16, 0x00, 0x00, 0x00, 0x00, 0x00, 0x00, 0x09,
  0x74, 0x00, 0x00, 0x00, 0xfc, 0xf6, 0xff, 0xff, 0x08, 0x00, 0x00, 0x00,
  0x14, 0x00, 0x00, 0x00, 0x01, 0x00, 0x00, 0x00, 0xfa, 0xff, 0xff, 0xff,
  0xff, 0xff, 0xff, 0xff, 0x00, 0x00, 0x00, 0x00, 0x01, 0x00, 0x00, 0x00,
  0x68, 0x68, 0x93, 0x3d, 0x44, 0x00, 0x00, 0x00, 0x4c, 0x53, 0x54, 0x4d,
  0x5f, 0x53, 0x74, 0x61, 0x74, 0x65, 0x6c, 0x65, 0x73, 0x73, 0x2f, 0x70,
  0x72, 0x65, 0x64, 0x69, 0x63, 0x74, 0x69, 0x6f, 0x6e, 0x73, 0x2f, 0x4d,
  0x61, 0x74, 0x4d, 0x75, 0x6c, 0x3b, 0x4c, 0x53, 0x54, 0x4d, 0x5f, 0x53,
  0x74, 0x61, 0x74, 0x65, 0x6c, 0x65, 0x73, 0x73, 0x2f, 0x70, 0x72, 0x65,
  0x64, 0x69, 0x63, 0x74, 0x69, 0x6f, 0x6e, 0x73, 0x2f, 0x42, 0x69, 0x61,
  0x73, 0x41, 0x64, 0x64, 0x00, 0x00, 0x00, 0x00, 0x02, 0x00, 0x00, 0x00,
  0x01, 0x00, 0x00, 0x00, 0x04, 0x00, 0x00, 0x00, 0x06, 0xf7, 0xff, 0xff,
  0x00, 0x00, 0x00, 0x01, 0x14, 0x00, 0x00, 0x00, 0x34, 0x00, 0x00, 0x00,
  0x15, 0x00, 0x00, 0x00, 0x00, 0x00, 0x00, 0x09, 0x4c, 0x00, 0x00, 0x00,
  0x94, 0xf7, 0xff, 0xff, 0x08, 0x00, 0x00, 0x00, 0x14, 0x00, 0x00, 0x00,
  0x01, 0x00, 0x00, 0x00, 0x01, 0x00, 0x00, 0x00, 0x00, 0x00, 0x00, 0x00,
  0x00, 0x00, 0x00, 0x00, 0x01, 0x00, 0x00, 0x00, 0x4e, 0x2c, 0xde, 0x3b,
  0x1e, 0x00, 0x00, 0x00, 0x4c, 0x53, 0x54, 0x4d, 0x5f, 0x53, 0x74, 0x61,
  0x74, 0x65, 0x6c, 0x65, 0x73, 0x73, 0x2f, 0x66, 0x6c, 0x61, 0x74, 0x74,
  0x65, 0x6e, 0x2f, 0x52, 0x65, 0x73, 0x68, 0x61, 0x70, 0x65, 0x00, 0x00,
  0x02, 0x00, 0x00, 0x00, 0x01, 0x00, 0x00, 0x00, 0x20, 0x03, 0x00, 0x00,
  0x76, 0xf7, 0xff, 0xff, 0x00, 0x00, 0x00, 0x01, 0x14, 0x00, 0x00, 0x00,
  0x30, 0x00, 0x00, 0x00, 0x14, 0x00, 0x00, 0x00, 0x00, 0x00, 0x00, 0x09,
  0x4c, 0x00, 0x00, 0x00, 0x04, 0xf8, 0xff, 0xff, 0x08, 0x00, 0x00, 0x00,
  0x10, 0x00, 0x00, 0x00, 0x01, 0x00, 0x00, 0x00, 0x01, 0x00, 0x00, 0x00,
  0x00, 0x00, 0x00, 0x00, 0x01, 0x00, 0x00, 0x00, 0x4e, 0x2c, 0xde, 0x3b,
  0x20, 0x00, 0x00, 0x00, 0x74, 0x66, 0x6c, 0x2e, 0x75, 0x6e, 0x69, 0x64,
  0x69, 0x72, 0x65, 0x63, 0x74, 0x69, 0x6f, 0x6e, 0x61, 0x6c, 0x5f, 0x73,
  0x65, 0x71, 0x75, 0x65, 0x6e, 0x63, 0x65, 0x5f, 0x6c, 0x73, 0x74, 0x6d,
  0x00, 0x00, 0x00, 0x00, 0x03, 0x00, 0x00, 0x00, 0x01, 0x00, 0x00, 0x00,
  0x64, 0x00, 0x00, 0x00, 0x08, 0x00, 0x00, 0x00, 0x00, 0x00, 0x16, 0x00,
  0x18, 0x00, 0x14, 0x00, 0x13, 0x00, 0x00, 0x00, 0x0c, 0x00, 0x08, 0x00,
  0x00, 0x00, 0x00, 0x00, 0x00, 0x00, 0x07, 0x00, 0x16, 0x00, 0x00, 0x00,
  0x00, 0x00, 0x00, 0x01, 0x10, 0x00, 0x00, 0x00, 0x2c, 0x00, 0x00, 0x00,
  0x00, 0x00, 0x00, 0x09, 0x4c, 0x00, 0x00, 0x00, 0x8c, 0xf8, 0xff, 0xff,
  0x08, 0x00, 0x00, 0x00, 0x10, 0x00, 0x00, 0x00, 0x01, 0x00, 0x00, 0x00,
  0x01, 0x00, 0x00, 0x00, 0x00, 0x00, 0x00, 0x00, 0x01, 0x00, 0x00, 0x00,
  0x4e, 0x2c, 0xde, 0x3b, 0x23, 0x00, 0x00, 0x00, 0x65, 0x66, 0x66, 0x65,
  0x63, 0x74, 0x69, 0x76, 0x65, 0x5f, 0x68, 0x69, 0x64, 0x64, 0x65, 0x6e,
  0x5f, 0x73, 0x63, 0x61, 0x6c, 0x65, 0x5f, 0x69, 0x6e, 0x74, 0x65, 0x72,
  0x6d, 0x65, 0x64, 0x69, 0x61, 0x74, 0x65, 0x00, 0x01, 0x00, 0x00, 0x00,
  0x00, 0x00, 0x00, 0x00, 0x4e, 0xff, 0xff, 0xff, 0x00, 0x00, 0x00, 0x01,
  0x08, 0x00, 0x00, 0x00, 0x28, 0x00, 0x00, 0x00, 0x1c, 0x00, 0x00, 0x00,
  0x69, 0x6e, 0x70, 0x75, 0x74, 0x5f, 0x74, 0x6f, 0x5f, 0x6f, 0x75, 0x74,
  0x70, 0x75, 0x74, 0x5f, 0x69, 0x6e, 0x74, 0x65, 0x72, 0x6d, 0x65, 0x64,
  0x69, 0x61, 0x74, 0x65, 0x00, 0x00, 0x00, 0x00, 0x01, 0x00, 0x00, 0x00,
  0x00, 0x00, 0x00, 0x00, 0x8a, 0xff, 0xff, 0xff, 0x00, 0x00, 0x00, 0x01,
  0x08, 0x00, 0x00, 0x00, 0x24, 0x00, 0x00, 0x00, 0x1a, 0x00, 0x00, 0x00,
  0x69, 0x6e, 0x70, 0x75, 0x74, 0x5f, 0x74, 0x6f, 0x5f, 0x63, 0x65, 0x6c,
  0x6c, 0x5f, 0x69, 0x6e, 0x74, 0x65, 0x72, 0x6d, 0x65, 0x64, 0x69, 0x61,
  0x74, 0x65, 0x00, 0x00, 0x01, 0x00, 0x00, 0x00, 0x00, 0x00, 0x00, 0x00,
  0xc2, 0xff, 0xff, 0xff, 0x00, 0x00, 0x00, 0x01, 0x08, 0x00, 0x00, 0x00,
  0x28, 0x00, 0x00, 0x00, 0x1c, 0x00, 0x00, 0x00, 0x69, 0x6e, 0x70, 0x75,
  0x74, 0x5f, 0x74, 0x6f, 0x5f, 0x66, 0x6f, 0x72, 0x67, 0x65, 0x74, 0x5f,
  0x69, 0x6e, 0x74, 0x65, 0x72, 0x6d, 0x65, 0x64, 0x69, 0x61, 0x74, 0x65,
  0x00, 0x00, 0x00, 0x00, 0x01, 0x00, 0x00, 0x00, 0x00, 0x00, 0x00, 0x00,
  0x00, 0x00, 0x16, 0x00, 0x10, 0x00, 0x0c, 0x00, 0x00, 0x00, 0x00, 0x00,
  0x08, 0x00, 0x00, 0x00, 0x00, 0x00, 0x00, 0x00, 0x00, 0x00, 0x07, 0x00,
  0x16, 0x00, 0x00, 0x00, 0x00, 0x00, 0x00, 0x01, 0x08, 0x00, 0x00, 0x00,
  0x24, 0x00, 0x00, 0x00, 0x1b, 0x00, 0x00, 0x00, 0x69, 0x6e, 0x70, 0x75,
  0x74, 0x5f, 0x74, 0x6f, 0x5f, 0x69, 0x6e, 0x70, 0x75, 0x74, 0x5f, 0x69,
  0x6e, 0x74, 0x65, 0x72, 0x6d, 0x65, 0x64, 0x69, 0x61, 0x74, 0x65, 0x00,
  0x01, 0x00, 0x00, 0x00, 0x00, 0x00, 0x00, 0x00, 0x9e, 0xff, 0xff, 0xff,
  0x00, 0x00, 0x01, 0x01, 0x10, 0x00, 0x00, 0x00, 0x30, 0x00, 0x00, 0x00,
  0x00, 0x00, 0x00, 0x07, 0x40, 0x00, 0x00, 0x00, 0xf4, 0xf9, 0xff, 0xff,
  0x08, 0x00, 0x00, 0x00, 0x14, 0x00, 0x00, 0x00, 0x01, 0x00, 0x00, 0x00,
  0x00, 0x00, 0x00, 0x00, 0x00, 0x00, 0x00, 0x00, 0x00, 0x00, 0x00, 0x00,
  0x01, 0x00, 0x00, 0x00, 0x00, 0x00, 0x00, 0x39, 0x12, 0x00, 0x00, 0x00,
  0x74, 0x66, 0x6c, 0x2e, 0x70, 0x73, 0x65, 0x75, 0x64, 0x6f, 0x5f, 0x71,
  0x63, 0x6f, 0x6e, 0x73, 0x74, 0x31, 0x00, 0x00, 0x02, 0x00, 0x00, 0x00,
  0x01, 0x00, 0x00, 0x00, 0x08, 0x00, 0x00, 0x00, 0x00, 0x00, 0x16, 0x00,
  0x18, 0x00, 0x14, 0x00, 0x13, 0x00, 0x00, 0x00, 0x0c, 0x00, 0x08, 0x00,
  0x07, 0x00, 0x00, 0x00, 0x00, 0x00, 0x06, 0x00, 0x16, 0x00, 0x00, 0x00,
  0x00, 0x00, 0x01, 0x01, 0x10, 0x00, 0x00, 0x00, 0x2c, 0x00, 0x00, 0x00,
  0x00, 0x00, 0x00, 0x09, 0x3c, 0x00, 0x00, 0x00, 0x6c, 0xfa, 0xff, 0xff,
  0x08, 0x00, 0x00, 0x00, 0x10, 0x00, 0x00, 0x00, 0x01, 0x00, 0x00, 0x00,
  0x01, 0x00, 0x00, 0x00, 0x00, 0x00, 0x00, 0x00, 0x01, 0x00, 0x00, 0x00,
  0x4e, 0x2c, 0xde, 0x3b, 0x11, 0x00, 0x00, 0x00, 0x74, 0x66, 0x6c, 0x2e,
  0x70, 0x73, 0x65, 0x75, 0x64, 0x6f, 0x5f, 0x71, 0x63, 0x6f, 0x6e, 0x73,
  0x74, 0x00, 0x00, 0x00, 0x02, 0x00, 0x00, 0x00, 0x01, 0x00, 0x00, 0x00,
  0x08, 0x00, 0x00, 0x00, 0x3e, 0xfa, 0xff, 0xff, 0x00, 0x00, 0x00, 0x01,
  0x14, 0x00, 0x00, 0x00, 0x30, 0x00, 0x00, 0x00, 0x11, 0x00, 0x00, 0x00,
  0x00, 0x00, 0x00, 0x09, 0x38, 0x00, 0x00, 0x00, 0xcc, 0xfa, 0xff, 0xff,
  0x08, 0x00, 0x00, 0x00, 0x10, 0x00, 0x00, 0x00, 0x01, 0x00, 0x00, 0x00,
  0x80, 0xff, 0xff, 0xff, 0xff, 0xff, 0xff, 0xff, 0x01, 0x00, 0x00, 0x00,
  0x81, 0x80, 0x80, 0x3b, 0x0c, 0x00, 0x00, 0x00, 0x74, 0x66, 0x6c, 0x2e,
  0x71, 0x75, 0x61, 0x6e, 0x74, 0x69, 0x7a, 0x65, 0x00, 0x00, 0x00, 0x00,
  0x03, 0x00, 0x00, 0x00, 0x01, 0x00, 0x00, 0x00, 0x64, 0x00, 0x00, 0x00,
  0x03, 0x00, 0x00, 0x00, 0x9e, 0xfa, 0xff, 0xff, 0x00, 0x00, 0x00, 0x01,
  0x14, 0x00, 0x00, 0x00, 0x34, 0x00, 0x00, 0x00, 0x10, 0x00, 0x00, 0x00,
  0x00, 0x00, 0x00, 0x09, 0x3c, 0x00, 0x00, 0x00, 0x2c, 0xfb, 0xff, 0xff,
  0x08, 0x00, 0x00, 0x00, 0x14, 0x00, 0x00, 0x00, 0x01, 0x00, 0x00, 0x00,
  0x00, 0x00, 0x00, 0x00, 0x00, 0x00, 0x00, 0x00, 0x00, 0x00, 0x00, 0x00,
  0x01, 0x00, 0x00, 0x00, 0xb6, 0x7d, 0x9c, 0x3b, 0x0f, 0x00, 0x00, 0x00,
  0x61, 0x72, 0x69, 0x74, 0x68, 0x2e, 0x63, 0x6f, 0x6e, 0x73, 0x74, 0x61,
  0x6e, 0x74, 0x38, 0x00, 0x02, 0x00, 0x00, 0x00, 0x08, 0x00, 0x00, 0x00,
  0x03, 0x00, 0x00, 0x00, 0xfe, 0xfa, 0xff, 0xff, 0x00, 0x00, 0x00, 0x01,
  0x14, 0x00, 0x00, 0x00, 0x34, 0x00, 0x00, 0x00, 0x0f, 0x00, 0x00, 0x00,
  0x00, 0x00, 0x00, 0x09, 0x3c, 0x00, 0x00, 0x00, 0x8c, 0xfb, 0xff, 0xff,
  0x08, 0x00, 0x00, 0x00, 0x14, 0x00, 0x00, 0x00, 0x01, 0x00, 0x00, 0x00,
  0x00, 0x00, 0x00, 0x00, 0x00, 0x00, 0x00, 0x00, 0x00, 0x00, 0x00, 0x00,
  0x01, 0x00, 0x00, 0x00, 0xf3, 0x29, 0xb3, 0x3b, 0x0f, 0x00, 0x00, 0x00,
  0x61, 0x72, 0x69, 0x74, 0x68, 0x2e, 0x63, 0x6f, 0x6e, 0x73, 0x74, 0x61,
  0x6e, 0x74, 0x39, 0x00, 0x02, 0x00, 0x00, 0x00, 0x08, 0x00, 0x00, 0x00,
  0x03, 0x00, 0x00, 0x00, 0x5e, 0xfb, 0xff, 0xff, 0x00, 0x00, 0x00, 0x01,
  0x14, 0x00, 0x00, 0x00, 0x30, 0x00, 0x00, 0x00, 0x0e, 0x00, 0x00, 0x00,
  0x00, 0x00, 0x00, 0x09, 0x3c, 0x00, 0x00, 0x00, 0xec, 0xfb, 0xff, 0xff,
  0x08, 0x00, 0x00, 0x00, 0x10, 0x00, 0x00, 0x00, 0x01, 0x00, 0x00, 0x00,
  0x00, 0x00, 0x00, 0x00, 0x00, 0x00, 0x00, 0x00, 0x01, 0x00, 0x00, 0x00,
  0x89, 0x57, 0x59, 0x3b, 0x10, 0x00, 0x00, 0x00, 0x61, 0x72, 0x69, 0x74,
  0x68, 0x2e, 0x63, 0x6f, 0x6e, 0x73, 0x74, 0x61, 0x6e, 0x74, 0x31, 0x30,
  0x00, 0x00, 0x00, 0x00, 0x02, 0x00, 0x00, 0x00, 0x08, 0x00, 0x00, 0x00,
  0x03, 0x00, 0x00, 0x00, 0xbe, 0xfb, 0xff, 0xff, 0x00, 0x00, 0x00, 0x01,
  0x14, 0x00, 0x00, 0x00, 0x30, 0x00, 0x00, 0x00, 0x0d, 0x00, 0x00, 0x00,
  0x00, 0x00, 0x00, 0x09, 0x3c, 0x00, 0x00, 0x00, 0x4c, 0xfc, 0xff, 0xff,
  0x08, 0x00, 0x00, 0x00, 0x10, 0x00, 0x00, 0x00, 0x01, 0x00, 0x00, 0x00,
  0x00, 0x00, 0x00, 0x00, 0x00, 0x00, 0x00, 0x00, 0x01, 0x00, 0x00, 0x00,
  0xb1, 0xee, 0x8e, 0x3b, 0x10, 0x00, 0x00, 0x00, 0x61, 0x72, 0x69, 0x74,
  0x68, 0x2e, 0x63, 0x6f, 0x6e, 0x73, 0x74, 0x61, 0x6e, 0x74, 0x31, 0x31,
  0x00, 0x00, 0x00, 0x00, 0x02, 0x00, 0x00, 0x00, 0x08, 0x00, 0x00, 0x00,
  0x03, 0x00, 0x00, 0x00, 0x1e, 0xfc, 0xff, 0xff, 0x00, 0x00, 0x00, 0x01,
  0x14, 0x00, 0x00, 0x00, 0x34, 0x00, 0x00, 0x00, 0x0c, 0x00, 0x00, 0x00,
  0x00, 0x00, 0x00, 0x09, 0x3c, 0x00, 0x00, 0x00, 0xac, 0xfc, 0xff, 0xff,
  0x08, 0x00, 0x00, 0x00, 0x14, 0x00, 0x00, 0x00, 0x01, 0x00, 0x00, 0x00,
  0x00, 0x00, 0x00, 0x00, 0x00, 0x00, 0x00, 0x00, 0x00, 0x00, 0x00, 0x00,
  0x01, 0x00, 0x00, 0x00, 0xa3, 0x8a, 0xaf, 0x3b, 0x0e, 0x00, 0x00, 0x00,
  0x61, 0x72, 0x69, 0x74, 0x68, 0x2e, 0x63, 0x6f, 0x6e, 0x73, 0x74, 0x61,
  0x6e, 0x74, 0x00, 0x00, 0x02, 0x00, 0x00, 0x00, 0x08, 0x00, 0x00, 0x00,
  0x08, 0x00, 0x00, 0x00, 0x7e, 0xfc, 0xff, 0xff, 0x00, 0x00, 0x00, 0x01,
  0x14, 0x00, 0x00, 0x00, 0x34, 0x00, 0x00, 0x00, 0x0b, 0x00, 0x00, 0x00,
  0x00, 0x00, 0x00, 0x09, 0x3c, 0x00, 0x00, 0x00, 0x0c, 0xfd, 0xff, 0xff,
  0x08, 0x00, 0x00, 0x00, 0x14, 0x00, 0x00, 0x00, 0x01, 0x00, 0x00, 0x00,
  0x00, 0x00, 0x00, 0x00, 0x00, 0x00, 0x00, 0x00, 0x00, 0x00, 0x00, 0x00,
  0x01, 0x00, 0x00, 0x00, 0x9d, 0xb1, 0x9d, 0x3b, 0x0f, 0x00, 0x00, 0x00,
  0x61, 0x72, 0x69, 0x74, 0x68, 0x2e, 0x63, 0x6f, 0x6e, 0x73, 0x74, 0x61,
  0x6e, 0x74, 0x31, 0x00, 0x02, 0x00, 0x00, 0x00, 0x08, 0x00, 0x00, 0x00,
  0x08, 0x00, 0x00, 0x00, 0xde, 0xfc, 0xff, 0xff, 0x00, 0x00, 0x00, 0x01,
  0x14, 0x00, 0x00, 0x00, 0x34, 0x00, 0x00, 0x00, 0x0a, 0x00, 0x00, 0x00,
  0x00, 0x00, 0x00, 0x09, 0x3c, 0x00, 0x00, 0x00, 0x6c, 0xfd, 0xff, 0xff,
  0x08, 0x00, 0x00, 0x00, 0x14, 0x00, 0x00, 0x00, 0x01, 0x00, 0x00, 0x00,
  0x00, 0x00, 0x00, 0x00, 0x00, 0x00, 0x00, 0x00, 0x00, 0x00, 0x00, 0x00,
  0x01, 0x00, 0x00, 0x00, 0x88, 0xfc, 0x6c, 0x3b, 0x0f, 0x00, 0x00, 0x00,
  0x61, 0x72, 0x69, 0x74, 0x68, 0x2e, 0x63, 0x6f, 0x6e, 0x73, 0x74, 0x61,
  0x6e, 0x74, 0x32, 0x00, 0x02, 0x00, 0x00, 0x00, 0x08, 0x00, 0x00, 0x00,
  0x08, 0x00, 0x00, 0x00, 0x3e, 0xfd, 0xff, 0xff, 0x00, 0x00, 0x00, 0x01,
  0x14, 0x00, 0x00, 0x00, 0x34, 0x00, 0x00, 0x00, 0x09, 0x00, 0x00, 0x00,
  0x00, 0x00, 0x00, 0x09, 0x3c, 0x00, 0x00, 0x00, 0xcc, 0xfd, 0xff, 0xff,
  0x08, 0x00, 0x00, 0x00, 0x14, 0x00, 0x00, 0x00, 0x01, 0x00, 0x00, 0x00,
  0x00, 0x00, 0x00, 0x00, 0x00, 0x00, 0x00, 0x00, 0x00, 0x00, 0x00, 0x00,
  0x01, 0x00, 0x00, 0x00, 0x7f, 0x99, 0xa4, 0x3b, 0x0f, 0x00, 0x00, 0x00,
  0x61, 0x72, 0x69, 0x74, 0x68, 0x2e, 0x63, 0x6f, 0x6e, 0x73, 0x74, 0x61,
  0x6e, 0x74, 0x33, 0x00, 0x02, 0x00, 0x00, 0x00, 0x08, 0x00, 0x00, 0x00,
  0x08, 0x00, 0x00, 0x00, 0x9e, 0xfd, 0xff, 0xff, 0x00, 0x00, 0x00, 0x01,
  0x14, 0x00, 0x00, 0x00, 0x30, 0x00, 0x00, 0x00, 0x08, 0x00, 0x00, 0x00,
  0x00, 0x00, 0x00, 0x02, 0x38, 0x00, 0x00, 0x00, 0x2c, 0xfe, 0xff, 0xff,
  0x08, 0x00, 0x00, 0x00, 0x10, 0x00, 0x00, 0x00, 0x01, 0x00, 0x00, 0x00,
  0x00, 0x00, 0x00, 0x00, 0x00, 0x00, 0x00, 0x00, 0x01, 0x00, 0x00, 0x00,
  0xd1, 0x1a, 0x9d, 0x37, 0x0f, 0x00, 0x00, 0x00, 0x61, 0x72, 0x69, 0x74,
  0x68, 0x2e, 0x63, 0x6f, 0x6e, 0x73, 0x74, 0x61, 0x6e, 0x74, 0x34, 0x00,
  0x01, 0x00, 0x00, 0x00, 0x08, 0x00, 0x00, 0x00, 0xf6, 0xfd, 0xff, 0xff,
  0x00, 0x00, 0x00, 0x01, 0x14, 0x00, 0x00, 0x00, 0x30, 0x00, 0x00, 0x00,
  0x07, 0x00, 0x00, 0x00, 0x00, 0x00, 0x00, 0x02, 0x38, 0x00, 0x00, 0x00,
  0x84, 0xfe, 0xff, 0xff, 0x08, 0x00, 0x00, 0x00, 0x10, 0x00, 0x00, 0x00,
  0x01, 0x00, 0x00, 0x00, 0x00, 0x00, 0x00, 0x00, 0x00, 0x00, 0x00, 0x00,
  0x01, 0x00, 0x00, 0x00, 0xd2, 0xdd, 0xb3, 0x37, 0x0f, 0x00, 0x00, 0x00,
  0x61, 0x72, 0x69, 0x74, 0x68, 0x2e, 0x63, 0x6f, 0x6e, 0x73, 0x74, 0x61,
  0x6e, 0x74, 0x35, 0x00, 0x01, 0x00, 0x00, 0x00, 0x08, 0x00, 0x00, 0x00,
  0x4e, 0xfe, 0xff, 0xff, 0x00, 0x00, 0x00, 0x01, 0x14, 0x00, 0x00, 0x00,
  0x30, 0x00, 0x00, 0x00, 0x06, 0x00, 0x00, 0x00, 0x00, 0x00, 0x00, 0x02,
  0x38, 0x00, 0x00, 0x00, 0xdc, 0xfe, 0xff, 0xff, 0x08, 0x00, 0x00, 0x00,
  0x10, 0x00, 0x00, 0x00, 0x01, 0x00, 0x00, 0x00, 0x00, 0x00, 0x00, 0x00,
  0x00, 0x00, 0x00, 0x00, 0x01, 0x00, 0x00, 0x00, 0xbc, 0x31, 0x5a, 0x37,
  0x0f, 0x00, 0x00, 0x00, 0x61, 0x72, 0x69, 0x74, 0x68, 0x2e, 0x63, 0x6f,
  0x6e, 0x73, 0x74, 0x61, 0x6e, 0x74, 0x36, 0x00, 0x01, 0x00, 0x00, 0x00,
  0x08, 0x00, 0x00, 0x00, 0xa6, 0xfe, 0xff, 0xff, 0x00, 0x00, 0x00, 0x01,
  0x14, 0x00, 0x00, 0x00, 0x30, 0x00, 0x00, 0x00, 0x05, 0x00, 0x00, 0x00,
  0x00, 0x00, 0x00, 0x02, 0x38, 0x00, 0x00, 0x00, 0x34, 0xff, 0xff, 0xff,
  0x08, 0x00, 0x00, 0x00, 0x10, 0x00, 0x00, 0x00, 0x01, 0x00, 0x00, 0x00,
  0x00, 0x00, 0x00, 0x00, 0x00, 0x00, 0x00, 0x00, 0x01, 0x00, 0x00, 0x00,
  0x30, 0x7e, 0x8f, 0x37, 0x0f, 0x00, 0x00, 0x00, 0x61, 0x72, 0x69, 0x74,
  0x68, 0x2e, 0x63, 0x6f, 0x6e, 0x73, 0x74, 0x61, 0x6e, 0x74, 0x37, 0x00,
  0x01, 0x00, 0x00, 0x00, 0x08, 0x00, 0x00, 0x00, 0xfe, 0xfe, 0xff, 0xff,
  0x00, 0x00, 0x00, 0x01, 0x14, 0x00, 0x00, 0x00, 0x34, 0x00, 0x00, 0x00,
  0x04, 0x00, 0x00, 0x00, 0x00, 0x00, 0x00, 0x09, 0x50, 0x00, 0x00, 0x00,
  0x8c, 0xff, 0xff, 0xff, 0x08, 0x00, 0x00, 0x00, 0x14, 0x00, 0x00, 0x00,
  0x01, 0x00, 0x00, 0x00, 0x00, 0x00, 0x00, 0x00, 0x00, 0x00, 0x00, 0x00,
  0x00, 0x00, 0x00, 0x00, 0x01, 0x00, 0x00, 0x00, 0x06, 0xed, 0x01, 0x3b,
  0x21, 0x00, 0x00, 0x00, 0x4c, 0x53, 0x54, 0x4d, 0x5f, 0x53, 0x74, 0x61,
  0x74, 0x65, 0x6c, 0x65, 0x73, 0x73, 0x2f, 0x70, 0x72, 0x65, 0x64, 0x69,
  0x63, 0x74, 0x69, 0x6f, 0x6e, 0x73, 0x2f, 0x4d, 0x61, 0x74, 0x4d, 0x75,
  0x6c, 0x00, 0x00, 0x00, 0x02, 0x00, 0x00, 0x00, 0x04, 0x00, 0x00, 0x00,
  0x20, 0x03, 0x00, 0x00, 0x72, 0xff, 0xff, 0xff, 0x00, 0x00, 0x00, 0x01,
  0x20, 0x00, 0x00, 0x00, 0x40, 0x00, 0x00, 0x00, 0x03, 0x00, 0x00, 0x00,
  0x00, 0x00, 0x00, 0x02, 0x6c, 0x00, 0x00, 0x00, 0x0c, 0x00, 0x0c, 0x00,
  0x00, 0x00, 0x00, 0x00, 0x08, 0x00, 0x04, 0x00, 0x0c, 0x00, 0x00, 0x00,
  0x08, 0x00, 0x00, 0x00, 0x14, 0x00, 0x00, 0x00, 0x01, 0x00, 0x00, 0x00,
  0x00, 0x00, 0x00, 0x00, 0x00, 0x00, 0x00, 0x00, 0x00, 0x00, 0x00, 0x00,
  0x01, 0x00, 0x00, 0x00, 0x0f, 0x84, 0x61, 0x37, 0x31, 0x00, 0x00, 0x00,
  0x4c, 0x53, 0x54, 0x4d, 0x5f, 0x53, 0x74, 0x61, 0x74, 0x65, 0x6c, 0x65,
  0x73, 0x73, 0x2f, 0x70, 0x72, 0x65, 0x64, 0x69, 0x63, 0x74, 0x69, 0x6f,
  0x6e, 0x73, 0x2f, 0x42, 0x69, 0x61, 0x73, 0x41, 0x64, 0x64, 0x2f, 0x52,
  0x65, 0x61, 0x64, 0x56, 0x61, 0x72, 0x69, 0x61, 0x62, 0x6c, 0x65, 0x4f,
  0x70, 0x00, 0x00, 0x00, 0x01, 0x00, 0x00, 0x00, 0x04, 0x00, 0x00, 0x00,
  0x00, 0x00, 0x16, 0x00, 0x1c, 0x00, 0x18, 0x00, 0x17, 0x00, 0x10, 0x00,
  0x0c, 0x00, 0x08, 0x00, 0x00, 0x00, 0x00, 0x00, 0x00, 0x00, 0x07, 0x00,
  0x16, 0x00, 0x00, 0x00, 0x00, 0x00, 0x00, 0x01, 0x14, 0x00, 0x00, 0x00,
  0x14, 0x00, 0x00, 0x00, 0x02, 0x00, 0x00, 0x00, 0x00, 0x00, 0x00, 0x02,
  0x2c, 0x00, 0x00, 0x00, 0xa0, 0xff, 0xff, 0xff, 0x1c, 0x00, 0x00, 0x00,
  0x4c, 0x53, 0x54, 0x4d, 0x5f, 0x53, 0x74, 0x61, 0x74, 0x65, 0x6c, 0x65,
  0x73, 0x73, 0x2f, 0x66, 0x6c, 0x61, 0x74, 0x74, 0x65, 0x6e, 0x2f, 0x43,
  0x6f, 0x6e, 0x73, 0x74, 0x00, 0x00, 0x00, 0x00, 0x01, 0x00, 0x00, 0x00,
  0x02, 0x00, 0x00, 0x00, 0x00, 0x00, 0x16, 0x00, 0x18, 0x00, 0x14, 0x00,
  0x00, 0x00, 0x10, 0x00, 0x0c, 0x00, 0x08, 0x00, 0x00, 0x00, 0x00, 0x00,
  0x00, 0x00, 0x07, 0x00, 0x16, 0x00, 0x00, 0x00, 0x00, 0x00, 0x00, 0x01,
  0x14, 0x00, 0x00, 0x00, 0x14, 0x00, 0x00, 0x00, 0x01, 0x00, 0x00, 0x00,
  0x24, 0x00, 0x00, 0x00, 0x04, 0x00, 0x04, 0x00, 0x04, 0x00, 0x00, 0x00,
  0x13, 0x00, 0x00, 0x00, 0x73, 0x65, 0x72, 0x76, 0x69, 0x6e, 0x67, 0x5f,
  0x64, 0x65, 0x66, 0x61, 0x75, 0x6c, 0x74, 0x5f, 0x78, 0x3a, 0x30, 0x00,
  0x03, 0x00, 0x00, 0x00, 0x01, 0x00, 0x00, 0x00, 0x64, 0x00, 0x00, 0x00,
  0x03, 0x00, 0x00, 0x00, 0x06, 0x00, 0x00, 0x00, 0x78, 0x00, 0x00, 0x00,
  0x5c, 0x00, 0x00, 0x00, 0x4c, 0x00, 0x00, 0x00, 0x38, 0x00, 0x00, 0x00,
  0x18, 0x00, 0x00, 0x00, 0x04, 0x00, 0x00, 0x00, 0xe0, 0xff, 0xff, 0xff,
  0x06, 0x00, 0x00, 0x00, 0x02, 0x00, 0x00, 0x00, 0x00, 0x00, 0x00, 0x06,
  0xf0, 0xff, 0xff, 0xff, 0x19, 0x00, 0x00, 0x00, 0x02, 0x00, 0x00, 0x00,
  0x00, 0x00, 0x00, 0x19, 0x0c, 0x00, 0x10, 0x00, 0x0f, 0x00, 0x00, 0x00,
  0x08, 0x00, 0x04, 0x00, 0x0c, 0x00, 0x00, 0x00, 0x09, 0x00, 0x00, 0x00,
  0x04, 0x00, 0x00, 0x00, 0x00, 0x00, 0x00, 0x09, 0xe8, 0xff, 0xff, 0xff,
  0x16, 0x00, 0x00, 0x00, 0x00, 0x00, 0x00, 0x16, 0xf4, 0xff, 0xff, 0xff,
  0x2c, 0x00, 0x00, 0x00, 0x00, 0x00, 0x00, 0x2c, 0x0c, 0x00, 0x0c, 0x00,
  0x0b, 0x00, 0x00, 0x00, 0x00, 0x00, 0x04, 0x00, 0x0c, 0x00, 0x00, 0x00,
  0x72, 0x00, 0x00, 0x00, 0x00, 0x00, 0x00, 0x72
};
const unsigned int lstm_model_quantized_tflite_len = 8120;
