alignas(8) const unsigned char lstm_model_tflite[] = {
  0x1c, 0x00, 0x00, 0x00, 0x54, 0x46, 0x4c, 0x33, 0x14, 0x00, 0x20, 0x00,
  0x1c, 0x00, 0x18, 0x00, 0x14, 0x00, 0x10, 0x00, 0x0c, 0x00, 0x00, 0x00,
  0x08, 0x00, 0x04, 0x00, 0x14, 0x00, 0x00, 0x00, 0x1c, 0x00, 0x00, 0x00,
  0x80, 0x00, 0x00, 0x00, 0xd8, 0x00, 0x00, 0x00, 0xe0, 0x1d, 0x00, 0x00,
  0xf0, 0x1d, 0x00, 0x00, 0x40, 0x26, 0x00, 0x00, 0x03, 0x00, 0x00, 0x00,
  0x01, 0x00, 0x00, 0x00, 0x04, 0x00, 0x00, 0x00, 0x56, 0xe1, 0xff, 0xff,
  0x0c, 0x00, 0x00, 0x00, 0x1c, 0x00, 0x00, 0x00, 0x3c, 0x00, 0x00, 0x00,
  0x0f, 0x00, 0x00, 0x00, 0x73, 0x65, 0x72, 0x76, 0x69, 0x6e, 0x67, 0x5f,
  0x64, 0x65, 0x66, 0x61, 0x75, 0x6c, 0x74, 0x00, 0x01, 0x00, 0x00, 0x00,
  0x04, 0x00, 0x00, 0x00, 0x9c, 0xff, 0xff, 0xff, 0x15, 0x00, 0x00, 0x00,
  0x04, 0x00, 0x00, 0x00, 0x08, 0x00, 0x00, 0x00, 0x6f, 0x75, 0x74, 0x70,
  0x75, 0x74, 0x5f, 0x30, 0x00, 0x00, 0x00, 0x00, 0x01, 0x00, 0x00, 0x00,
  0x04, 0x00, 0x00, 0x00, 0x0a, 0xe2, 0xff, 0xff, 0x04, 0x00, 0x00, 0x00,
  0x01, 0x00, 0x00, 0x00, 0x78, 0x00, 0x00, 0x00, 0x02, 0x00, 0x00, 0x00,
  0x34, 0x00, 0x00, 0x00, 0x04, 0x00, 0x00, 0x00, 0xdc, 0xff, 0xff, 0xff,
  0x18, 0x00, 0x00, 0x00, 0x04, 0x00, 0x00, 0x00, 0x13, 0x00, 0x00, 0x00,
  0x43, 0x4f, 0x4e, 0x56, 0x45, 0x52, 0x53, 0x49, 0x4f, 0x4e, 0x5f, 0x4d,
  0x45, 0x54, 0x41, 0x44, 0x41, 0x54, 0x41, 0x00, 0x08, 0x00, 0x0c, 0x00,
  0x08, 0x00, 0x04, 0x00, 0x08, 0x00, 0x00, 0x00, 0x17, 0x00, 0x00, 0x00,
  0x04, 0x00, 0x00, 0x00, 0x13, 0x00, 0x00, 0x00, 0x6d, 0x69, 0x6e, 0x5f,
  0x72, 0x75, 0x6e, 0x74, 0x69, 0x6d, 0x65, 0x5f, 0x76, 0x65, 0x72, 0x73,
  0x69, 0x6f, 0x6e, 0x00, 0x19, 0x00, 0x00, 0x00, 0x04, 0x1d, 0x00, 0x00,
  0xfc, 0x1c, 0x00, 0x00, 0xdc, 0x1c, 0x00, 0x00, 0xbc, 0x1c, 0x00, 0x00,
  0xa4, 0x1c, 0x00, 0x00, 0x54, 0x1c, 0x00, 0x00, 0x04, 0x1c, 0x00, 0x00,
  0xb4, 0x1b, 0x00, 0x00, 0x64, 0x1b, 0x00, 0x00, 0x44, 0x1b, 0x00, 0x00,
  0x24, 0x1b, 0x00, 0x00, 0x04, 0x1b, 0x00, 0x00, 0xe4, 0x1a, 0x00, 0x00,
  0xa4, 0x1a, 0x00, 0x00, 0x64, 0x1a, 0x00, 0x00, 0x24, 0x1a, 0x00, 0x00,
  0xe4, 0x19, 0x00, 0x00, 0xd4, 0x00, 0x00, 0x00, 0xb4, 0x00, 0x00, 0x00,
  0xac, 0x00, 0x00, 0x00, 0xa4, 0x00, 0x00, 0x00, 0x9c, 0x00, 0x00, 0x00,
  0x94, 0x00, 0x00, 0x00, 0x74, 0x00, 0x00, 0x00, 0x04, 0x00, 0x00, 0x00,
  0xde, 0xe2, 0xff, 0xff, 0x04, 0x00, 0x00, 0x00, 0x60, 0x00, 0x00, 0x00,
  0x0c, 0x00, 0x00, 0x00, 0x08, 0x00, 0x0e, 0x00, 0x08, 0x00, 0x04, 0x00,
  0x08, 0x00, 0x00, 0x00, 0x10, 0x00, 0x00, 0x00, 0x24, 0x00, 0x00, 0x00,
  0x00, 0x00, 0x06, 0x00, 0x08, 0x00, 0x04, 0x00, 0x06, 0x00, 0x00, 0x00,
  0x04, 0x00, 0x00, 0x00, 0x00, 0x00, 0x00, 0x00, 0x00, 0x00, 0x0a, 0x00,
  0x10, 0x00, 0x0c, 0x00, 0x08, 0x00, 0x04, 0x00, 0x0a, 0x00, 0x00, 0x00,
  0x01, 0x00, 0x00, 0x00, 0x02, 0x00, 0x00, 0x00, 0x04, 0x00, 0x00, 0x00,
  0x12, 0x00, 0x00, 0x00, 0x32, 0x2e, 0x31, 0x34, 0x2e, 0x30, 0x2d, 0x64,
  0x65, 0x76, 0x32, 0x30, 0x32, 0x33, 0x30, 0x35, 0x32, 0x34, 0x00, 0x00,
  0x4a, 0xe3, 0xff, 0xff, 0x04, 0x00, 0x00, 0x00, 0x10, 0x00, 0x00, 0x00,
  0x31, 0x2e, 0x31, 0x33, 0x2e, 0x31, 0x00, 0x00, 0x00, 0x00, 0x00, 0x00,
  0x00, 0x00, 0x00, 0x00, 0xac, 0xdb, 0xff, 0xff, 0xb0, 0xdb, 0xff, 0xff,
  0xb4, 0xdb, 0xff, 0xff, 0xb8, 0xdb, 0xff, 0xff, 0x76, 0xe3, 0xff, 0xff,
  0x04, 0x00, 0x00, 0x00, 0x10, 0x00, 0x00, 0x00, 0x00, 0x00, 0x00, 0x00,
  0x00, 0x00, 0x00, 0x00, 0x00, 0x00, 0x00, 0x00, 0x00, 0x00, 0x00, 0x00,
  0x92, 0xe3, 0xff, 0xff, 0x04, 0x00, 0x00, 0x00, 0x00, 0x19, 0x00, 0x00,
  0xe3, 0x4d, 0xda, 0xba, 0x70, 0x57, 0xb8, 0x3d, 0x4c, 0x28, 0x86, 0x3d,
  0x10, 0x30, 0xa6, 0x3d, 0x21, 0xe9, 0xb8, 0x3d, 0x1a, 0x3c, 0xcf, 0x3d,
  0x9e, 0xd5, 0xd8, 0x3d, 0xc8, 0xb3, 0x32, 0xbc, 0x0c, 0xbe, 0x44, 0xbc,
  0x83, 0xc5, 0x42, 0x3d, 0x76, 0xa4, 0x20, 0x3e, 0x83, 0xf8, 0x79, 0xbd,
  0xb8, 0x47, 0x06, 0x3e, 0x5e, 0xe5, 0xa6, 0x3c, 0x1a, 0x4d, 0x01, 0x3e,
  0xb6, 0x16, 0x9b, 0xbd, 0x85, 0x19, 0x95, 0x3d, 0xbc, 0x42, 0x07, 0xbe,
  0xd6, 0xfb, 0xcb, 0x3d, 0x51, 0x29, 0xbd, 0xbd, 0xa6, 0x19, 0x07, 0x3e,
  0x9c, 0x20, 0x97, 0xbd, 0x53, 0xa2, 0xdf, 0x3d, 0xdb, 0x31, 0x53, 0xbd,
  0x06, 0xdb, 0x1e, 0x3e, 0x7b, 0x75, 0xac, 0xbd, 0x1d, 0x47, 0x17, 0x3e,
  0x42, 0x73, 0xac, 0xbd, 0x42, 0x0a, 0xbc, 0xbc, 0xec, 0xa4, 0x47, 0x3d,
  0xed, 0xeb, 0x5e, 0x3e, 0x4c, 0x89, 0xe8, 0xbd, 0x73, 0x8f, 0x3d, 0x3d,
  0x99, 0x02, 0x84, 0x3d, 0x8c, 0x9b, 0x17, 0x3d, 0xe4, 0x13, 0x8e, 0xbd,
  0xa9, 0x1a, 0x98, 0x3d, 0x39, 0x8b, 0x08, 0x3d, 0x3e, 0xcd, 0x7c, 0x3e,
  0xc2, 0xc0, 0x79, 0xbd, 0x3c, 0x20, 0x90, 0xbc, 0xd6, 0xf6, 0xd7, 0x3c,
  0xe1, 0x75, 0x6f, 0x3d, 0xd6, 0x4a, 0x22, 0xbe, 0xd2, 0x95, 0x83, 0x3d,
  0xaa, 0x2a, 0x5d, 0xbd, 0x8d, 0x0d, 0x12, 0x3e, 0x32, 0x3a, 0xd4, 0xbd,
  0xf8, 0xc9, 0x08, 0x3e, 0x27, 0x39, 0x76, 0x3d, 0xb0, 0xfa, 0x2e, 0x3e,
  0xbd, 0x36, 0x87, 0xbd, 0xc4, 0x07, 0x3f, 0x3d, 0x6d, 0x03, 0x19, 0x3d,
  0x11, 0xff, 0x0b, 0x3e, 0x25, 0x19, 0x49, 0xbd, 0xec, 0xe1, 0xac, 0x3d,
  0xc4, 0x65, 0xda, 0x3c, 0xec, 0xda, 0xd5, 0x3d, 0xec, 0x2e, 0x88, 0xbc,
  0x21, 0xd4, 0x5a, 0x3d, 0xb3, 0xa8, 0x23, 0x3e, 0x00, 0x01, 0x2f, 0x3e,
  0xf9, 0x73, 0x1a, 0x3d, 0x7a, 0xa7, 0xb6, 0x3d, 0xa7, 0xc6, 0x84, 0xbc,
  0x4a, 0x48, 0x92, 0x3d, 0x30, 0x33, 0xc9, 0x3c, 0xc6, 0x44, 0x46, 0x3c,
  0x5b, 0x3b, 0x24, 0x3e, 0xfb, 0x84, 0xf0, 0x3d, 0x7d, 0x44, 0x7c, 0xbd,
  0x09, 0x6c, 0x05, 0x3e, 0x15, 0x08, 0xd3, 0x3d, 0xb5, 0x80, 0x1c, 0x3e,
  0x32, 0x07, 0x0c, 0xbd, 0x72, 0xb3, 0xa7, 0x3d, 0x45, 0x5b, 0xa7, 0xbd,
  0x5d, 0x89, 0x2c, 0x3e, 0x81, 0x89, 0x2d, 0x3d, 0x4b, 0xfb, 0x49, 0x3d,
  0xfd, 0xf9, 0x21, 0x3e, 0x10, 0x68, 0x0a, 0x3d, 0x07, 0xa0, 0xd1, 0x3c,
  0x42, 0xc5, 0xff, 0x3d, 0xd1, 0x34, 0x2a, 0xbc, 0xc7, 0xf3, 0xfc, 0x3d,
  0x0f, 0xfe, 0xda, 0xbc, 0x9c, 0x45, 0xf8, 0x3a, 0xd7, 0x82, 0xee, 0xbc,
  0xc7, 0x96, 0x58, 0x3e, 0x2e, 0x6b, 0xa0, 0xbd, 0x6d, 0x4e, 0xa1, 0xbc,
  0xd6, 0x7a, 0x1f, 0xbd, 0x70, 0x51, 0x0b, 0x3e, 0xf4, 0xa8, 0x09, 0xbc,
  0x35, 0x49, 0xc6, 0x3d, 0x8d, 0x0a, 0xf9, 0x3d, 0xa6, 0x9e, 0xf0, 0x3b,
  0x60, 0x4a, 0x10, 0xbd, 0xd6, 0x1a, 0x17, 0x3e, 0xa1, 0xcc, 0x5a, 0x3d,
  0xa5, 0x7d, 0xa9, 0x3c, 0xcf, 0x4e, 0x0b, 0x3b, 0x38, 0x60, 0x1a, 0x3d,
  0xb5, 0xd2, 0xbf, 0xba, 0xd3, 0xc7, 0x2e, 0x3e, 0xe3, 0xee, 0x63, 0x3d,
  0xc3, 0x54, 0xc2, 0x3c, 0x95, 0xb2, 0xa0, 0x3d, 0x2e, 0x38, 0xd6, 0x3d,
  0x57, 0xf7, 0x89, 0xbc, 0x6f, 0x97, 0xe3, 0x3c, 0x6d, 0x72, 0xc3, 0x3d,
  0xff, 0x2a, 0x21, 0x3d, 0x19, 0xad, 0x0e, 0x3d, 0x10, 0x70, 0xeb, 0xbb,
  0x8c, 0x96, 0xf8, 0xbd, 0x6f, 0x89, 0xf0, 0x3c, 0xbc, 0x14, 0x75, 0xbc,
  0xfd, 0x53, 0x7c, 0xbd, 0xca, 0xbc, 0x48, 0xbd, 0x91, 0xf2, 0x9c, 0x3d,
  0x4a, 0x4f, 0xf0, 0x3c, 0x43, 0x11, 0x8c, 0x3d, 0x13, 0xa9, 0xca, 0x3d,
  0x56, 0xa6, 0xca, 0x3d, 0x6c, 0xf0, 0xfa, 0xbc, 0x9c, 0x88, 0x12, 0xbd,
  0x2e, 0x04, 0x53, 0x3d, 0x07, 0xbe, 0xfb, 0x3d, 0xb2, 0x6c, 0x5a, 0x3d,
  0x3f, 0x7e, 0x27, 0x3d, 0xb6, 0xab, 0xe1, 0x3d, 0x3a, 0xd0, 0xbb, 0x3c,
  0x97, 0xae, 0xb2, 0x3d, 0x29, 0xed, 0xd4, 0x3c, 0x4a, 0x63, 0x39, 0xbc,
  0xc3, 0xdf, 0x65, 0x3d, 0xd3, 0x31, 0x98, 0x3d, 0x8a, 0x77, 0xa8, 0x3c,
  0xe4, 0xda, 0xeb, 0x3d, 0x77, 0xb8, 0xb6, 0x3d, 0x15, 0x7e, 0x13, 0x3e,
  0x4a, 0x95, 0xa5, 0x3d, 0x0e, 0x7e, 0x02, 0x3e, 0xc7, 0xe0, 0x6a, 0x3e,
  0x6b, 0xdd, 0xbb, 0x3d, 0x99, 0x32, 0x0e, 0xbd, 0x3f, 0x21, 0x00, 0x3d,
  0x88, 0x2f, 0x6d, 0x3d, 0xfd, 0x58, 0xce, 0x3d, 0x36, 0x7a, 0xc0, 0x3c,
  0xba, 0x35, 0x37, 0x3c, 0xb6, 0x15, 0xa2, 0x3e, 0xcc, 0xed, 0x45, 0x3d,
  0x7a, 0x6e, 0x77, 0x3d, 0x28, 0x16, 0xa3, 0xbd, 0x9b, 0xcb, 0x1e, 0x3e,
  0x50, 0x0e, 0xa7, 0x3d, 0xa1, 0x34, 0xf4, 0xbc, 0xd6, 0x8c, 0x64, 0x3d,
  0x2d, 0xd3, 0x96, 0x3e, 0x3e, 0x22, 0x3e, 0x3e, 0xcf, 0x5e, 0x52, 0xbd,
  0x92, 0x97, 0xb0, 0x3b, 0x79, 0x06, 0xfd, 0x3d, 0x76, 0xf6, 0x72, 0x3d,
  0x2b, 0x31, 0x50, 0x3c, 0xb9, 0x5f, 0xee, 0x3d, 0x6f, 0x28, 0xb7, 0x3e,
  0xad, 0x04, 0x38, 0x3e, 0xdf, 0x85, 0x1b, 0xbd, 0x60, 0x69, 0xf6, 0x3d,
  0xd3, 0x48, 0x76, 0x3e, 0xa2, 0xbc, 0x03, 0x3e, 0xef, 0x52, 0xfc, 0xbd,
  0xda, 0x54, 0x92, 0x3c, 0x3c, 0x0f, 0xa9, 0x3e, 0x57, 0x03, 0xed, 0x3d,
  0x9e, 0x6f, 0x9a, 0x3b, 0x19, 0xf0, 0xec, 0x3d, 0x12, 0xc6, 0xa5, 0x3e,
  0x0b, 0xbe, 0x17, 0x3e, 0xe1, 0x52, 0xb4, 0xbc, 0x8b, 0x39, 0x4c, 0x3e,
  0x8a, 0x6e, 0x6e, 0x3e, 0x96, 0xe6, 0x63, 0x3d, 0xb0, 0x45, 0x4c, 0xbc,
  0x9c, 0x54, 0x95, 0x3b, 0x27, 0xb0, 0x91, 0x3e, 0x2c, 0xd9, 0x56, 0x3d,
  0xaf, 0xc8, 0x22, 0x3d, 0xfd, 0x96, 0x14, 0x3e, 0x92, 0xa4, 0x13, 0x3e,
  0x7a, 0x20, 0x3e, 0xbc, 0x29, 0x04, 0x3c, 0xbd, 0x7a, 0xdd, 0xa2, 0x3c,
  0xd3, 0x35, 0x58, 0x3d, 0x13, 0x46, 0xb6, 0x3a, 0xd3, 0x31, 0x51, 0xbd,
  0xd1, 0xfb, 0x8d, 0x3d, 0x2f, 0x1e, 0x29, 0x3e, 0x3b, 0x22, 0xa9, 0x3c,
  0x0e, 0xf2, 0x72, 0xbb, 0x26, 0x42, 0x21, 0x3e, 0xc9, 0xa5, 0xe2, 0x3d,
  0xff, 0xda, 0xfa, 0xb9, 0xdf, 0x17, 0x92, 0xbc, 0x72, 0x70, 0xc2, 0x3d,
  0xfd, 0xb4, 0xd4, 0xbc, 0x03, 0xde, 0x85, 0x3d, 0x95, 0x21, 0x1e, 0x3e,
  0x4f, 0x90, 0x6f, 0x3d, 0xd3, 0x00, 0x88, 0xbc, 0x03, 0xd0, 0xb9, 0xbc,
  0x52, 0x23, 0x4b, 0x3c, 0x97, 0x29, 0xc7, 0x3c, 0x2d, 0x1d, 0x71, 0xbd,
  0x56, 0x24, 0x17, 0x3e, 0x24, 0x9f, 0x3d, 0x3e, 0x00, 0x13, 0xd1, 0xbb,
  0x05, 0xcd, 0x68, 0xbd, 0xfd, 0x9d, 0x04, 0x3e, 0x91, 0x21, 0xe9, 0x3d,
  0x30, 0x86, 0x2b, 0xbd, 0xb3, 0x42, 0x8a, 0xbc, 0xc6, 0x55, 0x8c, 0x3d,
  0xac, 0x2b, 0xa2, 0x3d, 0xaa, 0x98, 0x94, 0x3c, 0xb8, 0xb8, 0xdc, 0x3b,
  0xfd, 0xff, 0x6c, 0x3d, 0xe0, 0xf9, 0xda, 0x3c, 0xdd, 0x79, 0x34, 0xbd,
  0x2c, 0x8e, 0x46, 0xbd, 0x97, 0xca, 0x48, 0x3d, 0xc5, 0x99, 0x43, 0xbd,
  0xc6, 0x6d, 0x1a, 0x3d, 0x5b, 0x33, 0xc1, 0xbd, 0x48, 0xde, 0x0c, 0xbc,
  0x2f, 0x62, 0x5d, 0x3b, 0xb7, 0x26, 0xa9, 0xbd, 0x6c, 0xfa, 0x84, 0xbd,
  0x96, 0xfc, 0xa6, 0x3d, 0xe3, 0xba, 0x07, 0x3d, 0x64, 0x01, 0x07, 0xbe,
  0x75, 0x77, 0x8f, 0xbd, 0x9d, 0x16, 0x19, 0x3d, 0x58, 0xda, 0x8c, 0xba,
  0xc0, 0x12, 0x1f, 0x3d, 0x0b, 0xd6, 0x4a, 0xbd, 0x14, 0xff, 0x75, 0x3d,
  0x27, 0x56, 0xd4, 0xbc, 0xad, 0x3f, 0x1d, 0x3c, 0x21, 0x72, 0xfc, 0xbd,
  0x8b, 0x80, 0x31, 0x3d, 0xf7, 0xe6, 0xa6, 0x3d, 0x17, 0xc8, 0x03, 0xbe,
  0xdc, 0x31, 0x3e, 0x3c, 0xa6, 0xf9, 0xf6, 0x3d, 0xf5, 0xbb, 0xd6, 0xbc,
  0x2c, 0x33, 0xb3, 0x3c, 0x19, 0x00, 0x74, 0x3d, 0x7a, 0x07, 0xb6, 0xbb,
  0x74, 0x26, 0x98, 0xbd, 0xc1, 0x3a, 0x04, 0xbe, 0x8f, 0xc1, 0x47, 0x3c,
  0xf6, 0xbb, 0xbe, 0x3c, 0x2a, 0x0c, 0x7c, 0x3d, 0xdb, 0x9c, 0x20, 0xbb,
  0xe0, 0x1c, 0x9b, 0x3d, 0xb1, 0x7b, 0xe8, 0x3b, 0xca, 0xdd, 0xa3, 0xbd,
  0xc7, 0x48, 0x99, 0x3d, 0x03, 0x44, 0xf6, 0xbd, 0x02, 0xcd, 0x8e, 0xbd,
  0x84, 0x34, 0x11, 0xbd, 0x30, 0xba, 0xb3, 0xbd, 0x41, 0xc7, 0x81, 0x3d,
  0x13, 0x2e, 0x1d, 0xbd, 0x52, 0x9b, 0x9a, 0x3d, 0xe0, 0x49, 0x90, 0xbd,
  0xb3, 0xf8, 0x30, 0xbe, 0xc6, 0x8d, 0x3e, 0xbd, 0x0c, 0x7c, 0x2a, 0x3d,
  0x24, 0x09, 0x29, 0xbd, 0xbd, 0x2d, 0x03, 0xbe, 0x4c, 0xb3, 0x9e, 0x3d,
  0xdc, 0x0a, 0x69, 0x3c, 0xa3, 0x7b, 0x10, 0xbd, 0xd3, 0xb0, 0xd3, 0xbd,
  0xc0, 0x23, 0x23, 0x3d, 0x82, 0x45, 0x7f, 0x3d, 0x0d, 0xe9, 0x5e, 0xbd,
  0xcd, 0x08, 0x04, 0xbe, 0x3e, 0x98, 0x3b, 0x3d, 0x1f, 0xf8, 0x7a, 0xbd,
  0xb6, 0xa3, 0x94, 0x3d, 0x27, 0xdf, 0x00, 0xbd, 0x2c, 0x29, 0x30, 0x3d,
  0x9e, 0xbd, 0xa2, 0xbc, 0xa5, 0x66, 0x2d, 0x3d, 0x11, 0xfe, 0x69, 0xbd,
  0x45, 0x3a, 0x41, 0xbd, 0xce, 0x23, 0xd8, 0x3d, 0xdb, 0x1e, 0x48, 0x3b,
  0x4b, 0x4d, 0x02, 0xbe, 0x66, 0x70, 0x56, 0x3d, 0xbc, 0x52, 0xb5, 0x3d,
  0x6a, 0xb3, 0x53, 0xbd, 0xff, 0x2b, 0x03, 0xbd, 0x8a, 0x11, 0xda, 0x3c,
  0x65, 0x5a, 0xa4, 0x3c, 0xfd, 0x97, 0x8f, 0xbd, 0x78, 0x88, 0x57, 0xbe,
  0x2e, 0x9f, 0x8a, 0xbd, 0x29, 0x92, 0x50, 0xbc, 0x15, 0x57, 0x27, 0xbc,
  0x9a, 0x76, 0x6b, 0xbe, 0x30, 0xea, 0x80, 0x3c, 0x4f, 0xbe, 0x97, 0xbd,
  0x3b, 0xee, 0xba, 0xbd, 0x2c, 0xda, 0x77, 0xbd, 0x06, 0x37, 0x07, 0x3c,
  0x07, 0x46, 0xa0, 0xbd, 0x8c, 0x83, 0x3a, 0xbd, 0x9f, 0x79, 0x5e, 0xbe,
  0xfa, 0x98, 0x0e, 0xbe, 0x38, 0x82, 0xa8, 0x3c, 0x88, 0xd1, 0xdf, 0xbd,
  0x6a, 0x0c, 0x08, 0xbe, 0x36, 0x65, 0x33, 0xbd, 0xb2, 0xf9, 0x8e, 0x3b,
  0x8e, 0x74, 0xa3, 0xbd, 0xf0, 0x16, 0x66, 0xbe, 0x75, 0xf4, 0x45, 0xbe,
  0xd1, 0x7b, 0x89, 0xbc, 0xfd, 0x98, 0x90, 0x3d, 0xda, 0x6a, 0x3d, 0xbe,
  0x2a, 0x23, 0xef, 0xbd, 0xb1, 0x18, 0xab, 0x3d, 0xbe, 0xb0, 0x67, 0xbd,
  0x5e, 0x1d, 0x5f, 0xbe, 0x34, 0x1c, 0xc5, 0xbd, 0x15, 0x0c, 0x70, 0x3d,
  0x24, 0xbc, 0x81, 0x3d, 0xc1, 0x84, 0xb9, 0xbd, 0x9a, 0x87, 0x7f, 0xbd,
  0x3b, 0x96, 0xa4, 0xbd, 0x28, 0xe7, 0xb2, 0xbc, 0x9b, 0xe7, 0x97, 0xbe,
  0x69, 0x10, 0x1c, 0xbe, 0xed, 0xe8, 0xfa, 0xbc, 0x7f, 0x88, 0x2d, 0x3c,
  0x5b, 0xde, 0x9f, 0xbe, 0x9e, 0x09, 0x1a, 0xbe, 0x9c, 0x65, 0xb9, 0x3d,
  0x6d, 0xce, 0xbf, 0xbd, 0x58, 0x33, 0xbd, 0xbe, 0x17, 0xea, 0xcc, 0xbd,
  0xc2, 0x91, 0x1b, 0x3e, 0x6f, 0xcf, 0x24, 0xbc, 0x72, 0x31, 0x5d, 0xbe,
  0xc5, 0xa6, 0x4e, 0xbe, 0xf8, 0x1d, 0xc3, 0x3c, 0x43, 0xb0, 0xf2, 0x3c,
  0x2e, 0x4c, 0x89, 0xbe, 0xb3, 0x1e, 0x01, 0xbe, 0xf3, 0x3d, 0x1f, 0xbd,
  0x02, 0xda, 0x3a, 0xbd, 0x4a, 0x28, 0xac, 0xbe, 0x0b, 0x18, 0x40, 0xbe,
  0x08, 0xf6, 0x04, 0x3e, 0xb1, 0x58, 0xe9, 0xba, 0xe6, 0x4c, 0xa8, 0xbe,
  0xdf, 0xe8, 0x7b, 0xbe, 0x19, 0x0d, 0xea, 0x3d, 0xc4, 0xe9, 0xc0, 0xbd,
  0xa3, 0xa1, 0x77, 0xbe, 0xf2, 0xf2, 0x01, 0xbe, 0x8c, 0x23, 0xad, 0x3c,
  0x84, 0xe4, 0xe8, 0x39, 0x6d, 0xc7, 0xb6, 0xbe, 0x9b, 0x68, 0x14, 0xbe,
  0x8d, 0xa8, 0xc2, 0x3d, 0x79, 0x1c, 0xa6, 0xbd, 0x13, 0x28, 0x87, 0xbe,
  0x6d, 0xf9, 0x77, 0xbe, 0x19, 0xd6, 0xf6, 0x3d, 0xc1, 0xce, 0xcd, 0xbd,
  0x31, 0xbc, 0x5d, 0xbe, 0x8f, 0x25, 0x6f, 0xbe, 0xbe, 0xc2, 0x81, 0x3d,
  0x86, 0x70, 0xf9, 0xbd, 0xf3, 0xf4, 0x31, 0xbe, 0x7c, 0x85, 0x2c, 0xbe,
  0x6f, 0x13, 0x04, 0x3e, 0x60, 0x37, 0xcf, 0xbc, 0x50, 0x4a, 0xad, 0xbe,
  0x5f, 0x7a, 0x4c, 0xbe, 0x93, 0xf5, 0x10, 0x3d, 0x81, 0x4b, 0x3b, 0xbd,
  0xf1, 0xe0, 0xc8, 0xbc, 0x34, 0x15, 0x7d, 0x3d, 0x01, 0x29, 0x1a, 0x3d,
  0xb0, 0x0b, 0x4a, 0x3d, 0x94, 0xdf, 0x31, 0xbe, 0xd6, 0xc0, 0xea, 0x3d,
  0x16, 0x9e, 0x90, 0x3d, 0xa3, 0x64, 0xe1, 0xbd, 0xeb, 0x12, 0x34, 0xbd,
  0x9d, 0x35, 0x16, 0x3e, 0xcd, 0x72, 0xa7, 0xbd, 0x9b, 0xe6, 0xd9, 0xbd,
  0x1a, 0xcc, 0x10, 0xbe, 0xd0, 0x84, 0xea, 0xbc, 0x2c, 0x64, 0x85, 0xbd,
  0xb4, 0x83, 0x04, 0xbd, 0x75, 0x07, 0xc1, 0xbd, 0xb7, 0x9d, 0x93, 0x3b,
  0xd0, 0x63, 0x8e, 0x3c, 0x09, 0xc2, 0xc8, 0xbc, 0xe8, 0xc6, 0xdd, 0xbd,
  0x02, 0x0f, 0x7d, 0xbd, 0x26, 0x11, 0x88, 0x3d, 0x66, 0x08, 0x2b, 0x3c,
  0x3e, 0xcb, 0x95, 0xbd, 0xfb, 0xdb, 0xf7, 0x3d, 0x78, 0xdd, 0xbf, 0xbd,
  0xe1, 0x3c, 0xc7, 0xbc, 0xb1, 0x44, 0x00, 0xbe, 0xf5, 0xbf, 0x26, 0xbd,
  0x34, 0xd1, 0x5e, 0xbd, 0x67, 0xd4, 0x46, 0x3d, 0x2b, 0x7f, 0xc7, 0xbd,
  0xbb, 0x6a, 0x38, 0x3d, 0xa6, 0xc8, 0x22, 0xbd, 0x7a, 0xf9, 0x8e, 0x3d,
  0xf3, 0x72, 0x8d, 0x3d, 0xd9, 0x8c, 0x7d, 0xbd, 0x71, 0x20, 0x5c, 0xbd,
  0x95, 0x70, 0xef, 0xbc, 0xe8, 0xe8, 0x3c, 0x3b, 0xed, 0x61, 0x33, 0xbc,
  0xe3, 0x97, 0x83, 0xbd, 0x91, 0x4f, 0xe1, 0x3d, 0xd5, 0x19, 0x7b, 0x3d,
  0xa1, 0xa5, 0xa4, 0xbd, 0x48, 0x87, 0x34, 0x3d, 0x11, 0x5d, 0xa2, 0xbd,
  0x2f, 0x85, 0x5c, 0x3d, 0x1c, 0x3c, 0xd8, 0xbd, 0x13, 0xda, 0xa0, 0xbc,
  0xf2, 0x56, 0xb5, 0xbd, 0x27, 0xeb, 0x3e, 0xbd, 0x53, 0x11, 0x95, 0x3d,
  0x7e, 0x87, 0xd6, 0xbd, 0x13, 0x93, 0x90, 0x3d, 0x8f, 0xfc, 0xf9, 0x3c,
  0xb8, 0x7d, 0xbf, 0x3c, 0x12, 0x51, 0xed, 0x3c, 0x0e, 0xac, 0xec, 0x3d,
  0x51, 0x7f, 0x60, 0x3d, 0x68, 0xef, 0xfc, 0x3c, 0x42, 0xa4, 0xc9, 0x3c,
  0xa0, 0xe1, 0x03, 0x3b, 0x74, 0xa6, 0xfc, 0xbc, 0x4c, 0xe8, 0x8c, 0x3d,
  0xd0, 0xd1, 0xd1, 0xbd, 0x47, 0xf9, 0xdd, 0xbc, 0x6b, 0x41, 0xac, 0x3c,
  0xd9, 0xf4, 0x76, 0x3c, 0xa5, 0xc8, 0xa1, 0xbc, 0x7e, 0x29, 0xde, 0xbd,
  0xa2, 0x81, 0xa8, 0xbd, 0x70, 0x7a, 0x53, 0x3b, 0x2b, 0xb5, 0x5e, 0xbd,
  0xaf, 0x36, 0xa8, 0x3d, 0x47, 0x0b, 0xa6, 0xbd, 0xe8, 0x24, 0xdb, 0x3d,
  0x21, 0x43, 0xd2, 0xbd, 0x34, 0x50, 0xf5, 0xbd, 0x77, 0xdd, 0xa0, 0xba,
  0xc7, 0xe6, 0xa1, 0x3c, 0xca, 0xe7, 0x28, 0xbd, 0xde, 0x5f, 0x3a, 0x3d,
  0xa3, 0x63, 0xf3, 0xbd, 0xd0, 0x57, 0x96, 0x3d, 0xde, 0xb9, 0x9e, 0xbd,
  0xe1, 0x1d, 0x8b, 0x3d, 0x0e, 0x63, 0xe9, 0x3c, 0x15, 0x1f, 0xce, 0x3d,
  0xcf, 0xdb, 0xcb, 0xbc, 0xda, 0x1b, 0xe9, 0xbd, 0x6b, 0x4a, 0xd0, 0xbd,
  0x78, 0x61, 0xb3, 0xbb, 0xb8, 0xa1, 0xb5, 0xbc, 0x78, 0x60, 0x89, 0x3d,
  0x4a, 0x7d, 0x7c, 0xbd, 0x96, 0x02, 0x66, 0xbc, 0xa8, 0xa6, 0x03, 0x3d,
  0x69, 0x48, 0x11, 0x3d, 0xef, 0x0c, 0x56, 0xbd, 0xf4, 0x8a, 0x04, 0x3e,
  0x18, 0x2d, 0xc9, 0xbd, 0x75, 0x1f, 0x43, 0x3d, 0x0f, 0x16, 0xf6, 0x3c,
  0x2d, 0x6c, 0xa7, 0xbd, 0xe5, 0xdd, 0x14, 0xbd, 0x5b, 0xb6, 0x14, 0xbe,
  0x26, 0x97, 0x09, 0xbe, 0x70, 0x02, 0xa0, 0x3d, 0x27, 0xb7, 0x81, 0xbb,
  0xb8, 0x15, 0xca, 0xbd, 0x16, 0xc7, 0xb9, 0xbd, 0xb5, 0xbd, 0x8e, 0xbc,
  0xde, 0x21, 0xe4, 0x3c, 0x73, 0x9a, 0x84, 0xbc, 0x63, 0xb1, 0x03, 0xbe,
  0xca, 0x2d, 0x01, 0x3d, 0x9f, 0x38, 0x77, 0xbd, 0xb3, 0x0f, 0x6b, 0xbd,
  0xec, 0xc2, 0x54, 0xbe, 0xfa, 0x10, 0x98, 0x3d, 0xc7, 0x5a, 0xac, 0x3d,
  0x93, 0xb3, 0x58, 0x3d, 0x1d, 0xa5, 0x9b, 0xbd, 0x49, 0x0f, 0x60, 0x3b,
  0x7d, 0x83, 0x43, 0xbd, 0x2c, 0x33, 0x96, 0xbd, 0xed, 0x72, 0xb3, 0x3b,
  0xa8, 0xf6, 0xc8, 0xbc, 0x19, 0x26, 0x68, 0xbd, 0xb9, 0x9d, 0x9b, 0xbd,
  0xfe, 0x99, 0x25, 0xbd, 0x36, 0xb0, 0x4c, 0xbc, 0x06, 0x16, 0x63, 0xbd,
  0x7f, 0xae, 0x3d, 0x3c, 0x79, 0x81, 0x6e, 0xbb, 0xe0, 0xbd, 0x8f, 0xbd,
  0xd3, 0x7f, 0xee, 0x3c, 0x66, 0x44, 0x48, 0x3d, 0xd5, 0x71, 0xb1, 0xbd,
  0xa2, 0xe5, 0x3d, 0xbc, 0x1c, 0xe6, 0xbf, 0x3d, 0x12, 0x7c, 0x22, 0xbd,
  0x09, 0x61, 0x98, 0xbc, 0x86, 0x55, 0x42, 0xbd, 0xdb, 0x0c, 0x85, 0xbd,
  0xcb, 0x65, 0xc4, 0xbd, 0x57, 0x1a, 0x27, 0xbe, 0xbe, 0xbe, 0x63, 0xbc,
  0xc5, 0xa7, 0x67, 0x3d, 0x4f, 0xe8, 0x52, 0x3b, 0xa9, 0x2b, 0x3b, 0xbe,
  0x08, 0x50, 0x1d, 0xbe, 0xae, 0x08, 0x3a, 0x3d, 0x29, 0x1e, 0xe4, 0xbd,
  0xa2, 0x86, 0xfa, 0xbd, 0x83, 0xe0, 0x07, 0xbe, 0x3d, 0x60, 0x97, 0x3d,
  0x37, 0xda, 0x97, 0x3d, 0x3e, 0x9c, 0x9c, 0xbc, 0xab, 0x64, 0x3f, 0x3d,
  0x01, 0x84, 0x27, 0x3d, 0xff, 0xf3, 0x3a, 0x3d, 0x3e, 0x32, 0x1a, 0xbe,
  0x88, 0x67, 0x41, 0xbe, 0xa1, 0x9d, 0xb2, 0x3c, 0x53, 0xa8, 0xea, 0xbd,
  0x3f, 0x16, 0x29, 0xbe, 0x3e, 0x3b, 0x38, 0xbd, 0xa4, 0x94, 0x8b, 0xbd,
  0xbc, 0x61, 0xa9, 0xbc, 0xf7, 0xe5, 0x55, 0xbe, 0x2d, 0xe7, 0xb8, 0xbd,
  0x51, 0x8c, 0x60, 0x3d, 0x22, 0x95, 0x31, 0x3d, 0x7e, 0x10, 0x35, 0xbe,
  0x76, 0xfc, 0x2e, 0x3b, 0x79, 0x1d, 0xfe, 0x3c, 0xed, 0xd8, 0xd3, 0xbd,
  0xcd, 0xc7, 0xc8, 0xbd, 0x62, 0x6c, 0x86, 0xbd, 0xfa, 0xca, 0x06, 0x3d,
  0xc3, 0x44, 0x7d, 0x3c, 0x1f, 0xb6, 0xd5, 0xbd, 0x1b, 0x79, 0x18, 0xbe,
  0x0e, 0xd9, 0xe8, 0x3d, 0x44, 0x2c, 0x89, 0xbc, 0x82, 0x91, 0x20, 0xbe,
  0xf4, 0x3a, 0xb9, 0xbd, 0xef, 0xab, 0xbc, 0xbc, 0x07, 0xc6, 0x9e, 0xbd,
  0x01, 0xa0, 0xb7, 0xbd, 0x6d, 0xab, 0x1c, 0xbe, 0xf4, 0xe2, 0x0b, 0x3d,
  0x9c, 0xbf, 0xfc, 0xbc, 0x46, 0x8f, 0x48, 0xbe, 0xfa, 0xd7, 0x9a, 0xbd,
  0x26, 0x04, 0xdc, 0xbc, 0x29, 0x86, 0xcb, 0xbc, 0xa9, 0x1d, 0x07, 0xbe,
  0x6b, 0x05, 0x4a, 0xbc, 0xde, 0x99, 0x82, 0x3d, 0xf7, 0xeb, 0x81, 0x3c,
  0xdc, 0xe6, 0x14, 0xbe, 0x3c, 0xa8, 0x8a, 0xbd, 0x07, 0x13, 0x20, 0x3c,
  0x85, 0xfc, 0xb5, 0xbb, 0xb3, 0xdd, 0xbc, 0xbd, 0x46, 0xba, 0xb0, 0xbd,
  0xb3, 0x59, 0xf6, 0xbc, 0x40, 0x36, 0x4b, 0xbd, 0x58, 0x41, 0xd5, 0xbd,
  0x87, 0x8b, 0xc6, 0xbd, 0x62, 0x2d, 0x0e, 0x3e, 0xb4, 0x25, 0x5e, 0xbd,
  0xeb, 0x5e, 0x9d, 0xbd, 0xca, 0x1f, 0x14, 0xbe, 0x8f, 0x63, 0xc2, 0x3d,
  0x06, 0x97, 0xbc, 0xbd, 0xe1, 0xa9, 0xec, 0xbd, 0xcb, 0x61, 0x6a, 0xbd,
  0x49, 0xe1, 0xa5, 0x3d, 0xa3, 0x91, 0xd7, 0x3c, 0x1a, 0x5a, 0x2a, 0xbe,
  0xd8, 0x29, 0x86, 0xbd, 0xeb, 0x3c, 0x0a, 0x3d, 0x38, 0x0b, 0x11, 0x3d,
  0x34, 0x0b, 0xba, 0xbd, 0xd7, 0x1f, 0x51, 0xbd, 0x20, 0x64, 0xbc, 0x3d,
  0x9c, 0x03, 0x1a, 0x3d, 0xa6, 0x0b, 0xff, 0xbd, 0xa3, 0x56, 0x96, 0xbd,
  0x9b, 0xb9, 0x49, 0xbd, 0xfd, 0x62, 0xce, 0x3c, 0xea, 0x4f, 0x99, 0xbd,
  0x3b, 0xa5, 0x05, 0xbe, 0xce, 0x8b, 0xe1, 0x3d, 0x2f, 0x0f, 0x3b, 0x3d,
  0x60, 0x98, 0xc1, 0x3c, 0x3b, 0x0f, 0x66, 0xbd, 0xb7, 0xc5, 0x91, 0x3b,
  0x96, 0x73, 0xeb, 0x3d, 0x07, 0x93, 0x29, 0x3c, 0x11, 0xd8, 0xa4, 0xbd,
  0x2b, 0x47, 0xb2, 0x3d, 0xe1, 0xa5, 0x3b, 0xbc, 0x12, 0x0a, 0xd0, 0x3d,
  0x48, 0x88, 0xc2, 0xbb, 0x25, 0x0e, 0x3f, 0x3d, 0x8d, 0x4e, 0xaa, 0x3d,
  0x04, 0x58, 0xe5, 0x3d, 0x32, 0xaf, 0x18, 0xbe, 0xcf, 0x29, 0x04, 0x3d,
  0xb2, 0x1c, 0xa5, 0xbc, 0x20, 0x0a, 0x58, 0x3c, 0x77, 0xbf, 0xba, 0xbd,
  0xba, 0x3d, 0xcd, 0xbd, 0x80, 0xfa, 0xb5, 0x3d, 0xae, 0xba, 0x22, 0x3e,
  0xaf, 0x6a, 0x53, 0xbd, 0x52, 0xf5, 0xa0, 0xbd, 0xb5, 0xef, 0xe6, 0x3c,
  0xa6, 0x8f, 0x50, 0x3b, 0xc3, 0x0b, 0x8e, 0xbc, 0x52, 0x46, 0x4d, 0x3d,
  0x77, 0x3c, 0xc1, 0x3a, 0x20, 0xd1, 0x9b, 0x3d, 0x11, 0xd4, 0x3f, 0x3d,
  0x20, 0x18, 0xca, 0xbd, 0x35, 0xdd, 0x4a, 0xbc, 0x21, 0xe1, 0x20, 0x3e,
  0x11, 0xda, 0x01, 0x3d, 0x96, 0xaa, 0x87, 0x3d, 0xde, 0xca, 0x27, 0x3d,
  0x2e, 0xec, 0xaf, 0x3d, 0x5a, 0x6c, 0x8a, 0x3c, 0x1e, 0x6f, 0xbd, 0xbd,
  0xed, 0xb4, 0x9f, 0xbc, 0x66, 0xd1, 0x38, 0x3e, 0x3c, 0x06, 0x8a, 0xbd,
  0x15, 0x7f, 0xa4, 0x3d, 0x16, 0xcd, 0x64, 0x3d, 0x9d, 0xab, 0x28, 0x3e,
  0x6b, 0x01, 0xbd, 0x3c, 0x59, 0x50, 0x88, 0xbd, 0x73, 0x81, 0xb5, 0x3d,
  0xac, 0xbe, 0x75, 0x3d, 0x1a, 0xea, 0xe3, 0x3d, 0x13, 0xd3, 0x9d, 0xbd,
  0x03, 0xcd, 0xab, 0x3d, 0xd0, 0xd6, 0x6d, 0x3d, 0x5e, 0xea, 0xe4, 0x3d,
  0x72, 0xec, 0x5e, 0x3d, 0x25, 0xd4, 0xa7, 0xbc, 0x12, 0xe4, 0x1f, 0x3e,
  0xbe, 0x98, 0x85, 0x3d, 0xb4, 0xae, 0x1b, 0x3c, 0x2e, 0xbc, 0x11, 0xbd,
  0xc4, 0x29, 0x6f, 0x3d, 0xa7, 0xb1, 0x37, 0x3d, 0x8d, 0xf3, 0xe1, 0x3d,
  0x22, 0x86, 0x33, 0x3e, 0xdc, 0x4a, 0xb9, 0x3d, 0xf8, 0x80, 0xe5, 0x3d,
  0x8d, 0x39, 0xef, 0x3d, 0x6d, 0xa1, 0xf7, 0x3d, 0x6a, 0x2c, 0x36, 0x3d,
  0x30, 0xe3, 0x16, 0x3e, 0x5e, 0x23, 0x80, 0xbd, 0x44, 0x9c, 0x31, 0x3d,
  0x01, 0x2c, 0xde, 0x3d, 0x7b, 0xa4, 0xf2, 0xbb, 0x1a, 0xf2, 0xb6, 0xbd,
  0xd1, 0x49, 0xa2, 0x3d, 0xe3, 0x29, 0x29, 0x3d, 0xbe, 0x78, 0x60, 0x3d,
  0x5e, 0xf9, 0x11, 0xbd, 0x46, 0xe8, 0x77, 0x3d, 0x1a, 0xa8, 0x9c, 0x3d,
  0xdc, 0x7b, 0x18, 0x3e, 0x99, 0xa2, 0x42, 0xbc, 0x5e, 0x35, 0x6d, 0xbd,
  0x99, 0x50, 0x75, 0x3d, 0xce, 0x74, 0x00, 0xbd, 0x64, 0x72, 0x4d, 0xbd,
  0x91, 0xa8, 0x84, 0xbd, 0x4c, 0xd8, 0x11, 0x3d, 0x25, 0xf6, 0x2f, 0x3d,
  0xd8, 0x38, 0xdb, 0x3d, 0x6a, 0xc1, 0x4e, 0xbd, 0xc8, 0x17, 0xf9, 0x3d,
  0xdc, 0x11, 0x4c, 0xbd, 0x85, 0xb4, 0x61, 0xbd, 0x65, 0x14, 0x9e, 0x3c,
  0x7f, 0xfd, 0x12, 0x3e, 0x07, 0xb0, 0xba, 0x3d, 0xa9, 0x12, 0x16, 0x3d,
  0x96, 0xb2, 0x96, 0x3d, 0x1a, 0xe2, 0x06, 0x3e, 0xc9, 0x51, 0x0b, 0x3d,
  0xe4, 0x3a, 0x20, 0x3d, 0xa0, 0x67, 0x86, 0x3d, 0x52, 0xc6, 0x78, 0x3e,
  0x0f, 0xc3, 0xcf, 0x3c, 0xb1, 0x3c, 0xa9, 0xbd, 0x4a, 0x70, 0x82, 0x3d,
  0x5c, 0x47, 0x19, 0x3e, 0x3a, 0xb7, 0x07, 0x3e, 0x18, 0xf8, 0xcc, 0xbc,
  0x64, 0xe0, 0x56, 0xbc, 0x27, 0xac, 0x9b, 0x3d, 0xf2, 0xa7, 0x88, 0x3d,
  0x24, 0x09, 0x03, 0xbc, 0x3e, 0xee, 0xc7, 0x3c, 0xf9, 0x10, 0xd5, 0x3d,
  0xc8, 0xdf, 0xc4, 0x3d, 0x36, 0xa5, 0xb1, 0xbc, 0xd8, 0x20, 0x87, 0x3d,
  0x52, 0x7b, 0x2c, 0x3e, 0x67, 0xac, 0x97, 0x3c, 0x74, 0x66, 0xa3, 0xbd,
  0x0b, 0xb9, 0x11, 0x3d, 0x72, 0x2c, 0x4d, 0x3e, 0x28, 0xcc, 0x2d, 0xba,
  0x2e, 0x0f, 0xbe, 0xbd, 0x47, 0xa1, 0x4d, 0x3d, 0x1e, 0x80, 0xe0, 0x3d,
  0xef, 0x96, 0x90, 0x3c, 0x1e, 0xa1, 0x64, 0xbd, 0x16, 0xb1, 0x00, 0x3e,
  0xac, 0xba, 0x87, 0x3d, 0x9c, 0xc1, 0x51, 0xbc, 0xa6, 0xbd, 0x88, 0x3d,
  0x86, 0xbd, 0xc5, 0x3d, 0xc8, 0xca, 0xa2, 0x3d, 0x52, 0x46, 0x00, 0x3e,
  0x57, 0x3f, 0x97, 0xbd, 0x39, 0xea, 0x30, 0x3e, 0x3a, 0x20, 0xb8, 0x3d,
  0x96, 0x4a, 0xe0, 0x3d, 0x6a, 0x6e, 0xb9, 0x3c, 0x0f, 0x45, 0x09, 0x3c,
  0x79, 0x19, 0x23, 0x3e, 0x25, 0x11, 0xcd, 0xbc, 0xf8, 0x40, 0xeb, 0xbd,
  0x37, 0x4d, 0x09, 0x3e, 0xd6, 0x1a, 0x1a, 0xbb, 0x35, 0xec, 0xb0, 0x3c,
  0x01, 0x68, 0x99, 0xbc, 0x53, 0xd5, 0x64, 0x3e, 0xc9, 0x84, 0xf3, 0x3d,
  0x6a, 0x0f, 0xe4, 0x3d, 0x93, 0x0b, 0x95, 0xbc, 0xdc, 0x1d, 0x88, 0x3d,
  0x36, 0xe3, 0x5d, 0x3e, 0xe2, 0x97, 0x97, 0x3d, 0xeb, 0x35, 0xad, 0xbc,
  0xae, 0x80, 0xe5, 0xbd, 0x60, 0x6f, 0x3f, 0x3d, 0xed, 0x55, 0xd3, 0x3d,
  0x63, 0xf3, 0x8a, 0x3d, 0x42, 0x5d, 0x9f, 0xbc, 0x8a, 0xb0, 0xa8, 0xbc,
  0xd7, 0x39, 0x27, 0x3e, 0xac, 0x3a, 0x67, 0x3a, 0x7e, 0xa3, 0x32, 0xbe,
  0xdd, 0x78, 0x16, 0xbe, 0x2b, 0x83, 0x03, 0x3e, 0x89, 0x3d, 0xfe, 0x3d,
  0x32, 0x22, 0xed, 0xbd, 0x35, 0x0b, 0xcd, 0x3a, 0x84, 0x48, 0xbc, 0x3d,
  0xa3, 0x68, 0x16, 0x3e, 0x18, 0x9d, 0x2c, 0xbd, 0x8f, 0xa7, 0x12, 0xbc,
  0x1a, 0xed, 0x15, 0x3e, 0x1a, 0xbe, 0xf3, 0x3d, 0x66, 0xe8, 0x15, 0xbe,
  0x47, 0x14, 0xc3, 0x3c, 0x3b, 0x26, 0x12, 0x3e, 0x3c, 0xd7, 0xbe, 0xbc,
  0x26, 0x16, 0x3f, 0x3c, 0x4c, 0x88, 0x14, 0xbe, 0xa5, 0xf5, 0xa7, 0x3d,
  0xea, 0x79, 0x34, 0x3d, 0xc0, 0xf6, 0x2f, 0xbe, 0xd2, 0x6d, 0xac, 0xbd,
  0x94, 0x4e, 0x37, 0x3d, 0x9d, 0x98, 0xb6, 0xbd, 0xf3, 0x70, 0x25, 0xbd,
  0xcc, 0x7e, 0x37, 0xbd, 0xe0, 0xd3, 0x7d, 0x3d, 0xfa, 0x10, 0xd3, 0xbc,
  0x3d, 0xec, 0xa9, 0xbd, 0x15, 0x69, 0x00, 0xbe, 0xda, 0xaa, 0x4c, 0x3e,
  0x16, 0xca, 0xa6, 0x3a, 0x7e, 0x7e, 0xc9, 0xbd, 0xa8, 0x31, 0x29, 0xbd,
  0x1d, 0x2d, 0xf0, 0x3d, 0xb1, 0xd8, 0x7f, 0x3d, 0xcc, 0x64, 0xe0, 0xbc,
  0xe7, 0xac, 0x09, 0x3c, 0x6e, 0x9d, 0xb9, 0x3c, 0x22, 0x03, 0xde, 0x3d,
  0xc2, 0x85, 0x5a, 0x3c, 0x83, 0x60, 0xbd, 0xbd, 0xfa, 0x48, 0x16, 0x3e,
  0x74, 0x79, 0x02, 0x3d, 0xc8, 0x8a, 0x55, 0xbe, 0x74, 0xe1, 0x86, 0xbd,
  0xcc, 0x7f, 0x27, 0x3e, 0x17, 0x82, 0x83, 0x3d, 0x8a, 0xbc, 0x3a, 0xbe,
  0x15, 0xed, 0xcd, 0xbd, 0x1b, 0xc0, 0x0b, 0x3e, 0x46, 0x4a, 0xb9, 0x3d,
  0x16, 0x93, 0xa0, 0xbd, 0x06, 0x0a, 0x72, 0xbd, 0x08, 0xf1, 0xee, 0x3d,
  0x5a, 0x8c, 0xc4, 0xbd, 0x79, 0x0f, 0x57, 0xbe, 0x73, 0x5a, 0x9f, 0xbc,
  0x2b, 0x7a, 0x11, 0xbc, 0x0e, 0xb5, 0xe6, 0xbd, 0xb0, 0x42, 0x92, 0xbd,
  0x99, 0xf6, 0x53, 0xbc, 0x27, 0xe6, 0xe1, 0x3c, 0xa4, 0x70, 0x11, 0x3b,
  0x99, 0x94, 0x50, 0xbd, 0x3e, 0x7a, 0x97, 0x3c, 0x7e, 0x8a, 0xe8, 0x3d,
  0x7c, 0xd3, 0xd2, 0x3d, 0x40, 0x87, 0xef, 0xbd, 0xfb, 0x09, 0x7b, 0x3c,
  0xf1, 0xf6, 0xcc, 0x3d, 0x28, 0x10, 0x3a, 0xbd, 0x07, 0x6d, 0xcd, 0xbd,
  0xe8, 0x7f, 0xee, 0xbd, 0x2d, 0x0d, 0xe4, 0x3b, 0x25, 0x66, 0xf4, 0x3d,
  0xa0, 0xb6, 0x82, 0xbd, 0x68, 0x0b, 0x1a, 0xbe, 0xed, 0xac, 0x28, 0x3d,
  0xe2, 0x5c, 0xfd, 0x3b, 0x65, 0x0a, 0x59, 0x3a, 0x15, 0xcc, 0x3f, 0xbd,
  0x7e, 0xed, 0xa1, 0x3d, 0x70, 0xcd, 0xf5, 0x3a, 0x76, 0x92, 0x1f, 0xbe,
  0x6c, 0xed, 0x4c, 0xbd, 0x71, 0xa7, 0x00, 0x3e, 0x74, 0x73, 0x79, 0x3d,
  0x85, 0x76, 0xc1, 0xbd, 0x90, 0xff, 0xc9, 0xbd, 0xb1, 0xb5, 0xfe, 0x3d,
  0x3e, 0x75, 0x15, 0x3d, 0xcc, 0x13, 0x69, 0xbd, 0xe2, 0xca, 0x0c, 0xbe,
  0x55, 0x00, 0xbf, 0x3d, 0xd9, 0x2f, 0x90, 0x3d, 0xe6, 0x15, 0x9a, 0xbd,
  0x65, 0xfb, 0x05, 0xbb, 0x20, 0xdb, 0x10, 0x3e, 0xdd, 0xee, 0x8d, 0xbc,
  0x9a, 0x16, 0xbf, 0xbd, 0x42, 0xab, 0x51, 0x3d, 0xe3, 0xec, 0xc9, 0x3d,
  0xa5, 0x8b, 0xdb, 0x3c, 0x8f, 0xc0, 0x05, 0xbd, 0xbd, 0xb5, 0x05, 0xbd,
  0xff, 0xc8, 0x14, 0x3e, 0x6d, 0xfa, 0x78, 0xbd, 0xfd, 0xa5, 0x97, 0xbd,
  0x39, 0x8f, 0x4b, 0xbe, 0x00, 0x5d, 0x0c, 0x3d, 0xaa, 0x03, 0x89, 0x3d,
  0xc1, 0x77, 0x85, 0xbd, 0x85, 0xef, 0x5c, 0xbd, 0x45, 0xcc, 0xa3, 0x3d,
  0xcd, 0x88, 0x73, 0x3d, 0x44, 0x1b, 0xed, 0xbd, 0x52, 0x5f, 0x33, 0xbe,
  0xd5, 0x73, 0x99, 0x3d, 0x18, 0xc5, 0x05, 0xbe, 0x37, 0x95, 0xbe, 0xbc,
  0xfe, 0x8c, 0x8b, 0xbd, 0xf8, 0x6a, 0xbc, 0x3d, 0x8b, 0x90, 0x0e, 0xbd,
  0xdc, 0x67, 0x5f, 0xbd, 0x8b, 0xf8, 0x1b, 0xbe, 0xd7, 0x50, 0xeb, 0x3d,
  0x70, 0x1c, 0x18, 0xbd, 0x25, 0xcb, 0x5c, 0xbe, 0x7a, 0x03, 0xda, 0xbd,
  0x77, 0x5e, 0x1a, 0x3e, 0xc5, 0x62, 0x20, 0x3d, 0x7f, 0xde, 0xfa, 0xbd,
  0x52, 0xa1, 0x28, 0xbe, 0x0a, 0x0d, 0x95, 0x3d, 0x3f, 0x6e, 0x04, 0xbe,
  0x35, 0x47, 0x8d, 0xbc, 0x2c, 0xf9, 0x26, 0xbd, 0x6a, 0xbe, 0x1d, 0x3e,
  0xe3, 0x06, 0xb2, 0xbd, 0x78, 0x71, 0xf5, 0xbd, 0x3b, 0x58, 0xe6, 0xbd,
  0x49, 0x9a, 0x84, 0x3c, 0x5a, 0xbd, 0x17, 0xbe, 0xa1, 0xed, 0x98, 0xbd,
  0x9c, 0x40, 0xa6, 0xbd, 0x58, 0xd3, 0xa5, 0x3d, 0x61, 0x26, 0xc7, 0xbd,
  0x04, 0x58, 0x0d, 0x3d, 0x20, 0x77, 0xd3, 0xbd, 0xcf, 0xb8, 0xd9, 0x3d,
  0xe8, 0x0b, 0x90, 0xbc, 0x68, 0xa7, 0x37, 0xbe, 0x96, 0x72, 0x3d, 0xbd,
  0x98, 0x84, 0xa6, 0x3b, 0xaa, 0xaf, 0x20, 0xbd, 0x8d, 0x48, 0xc1, 0x3c,
  0x11, 0x2a, 0x47, 0xbe, 0x95, 0x85, 0x6d, 0x3d, 0x74, 0xea, 0x15, 0xbe,
  0xc6, 0x03, 0xe5, 0xbd, 0x39, 0x5a, 0xf3, 0xbd, 0xb5, 0xd3, 0x79, 0x3d,
  0x9d, 0x8f, 0x22, 0xbd, 0xd3, 0x72, 0x0d, 0xbe, 0xeb, 0x5e, 0x78, 0xbe,
  0x1d, 0xc8, 0xc5, 0xbd, 0x9b, 0xda, 0x32, 0xbe, 0x80, 0x1e, 0xa8, 0xbd,
  0xba, 0xcb, 0x01, 0xbe, 0x37, 0xf7, 0x99, 0x3c, 0xb0, 0xfe, 0xf9, 0xbc,
  0x34, 0x0f, 0xb7, 0xbd, 0x97, 0x2f, 0x6a, 0xbd, 0x2f, 0xd6, 0x21, 0xbc,
  0x51, 0xc2, 0xa3, 0xbd, 0xf0, 0x5b, 0xca, 0xbd, 0xe5, 0x83, 0xf4, 0xbd,
  0x2f, 0x74, 0x83, 0xbc, 0xb9, 0x7e, 0x15, 0xbe, 0xc6, 0x12, 0xc8, 0xbd,
  0xd6, 0xe3, 0x39, 0xbe, 0x17, 0x83, 0x53, 0xbb, 0x0e, 0x3c, 0x3f, 0xbe,
  0xca, 0x9c, 0xbc, 0xbc, 0x8b, 0x76, 0x38, 0xbd, 0xf4, 0x83, 0x7c, 0x3d,
  0xa9, 0x0a, 0xa2, 0xbd, 0x43, 0x29, 0x3b, 0xbd, 0x2d, 0x1d, 0xe9, 0xbc,
  0xb4, 0x24, 0x4f, 0x3d, 0x04, 0xa5, 0x42, 0xbe, 0x4f, 0xe7, 0xde, 0xbc,
  0x4f, 0x3e, 0xb1, 0xbd, 0x76, 0x61, 0x8f, 0x3d, 0x1f, 0xf2, 0xd4, 0xbd,
  0x01, 0x98, 0x66, 0x3d, 0x60, 0x72, 0x1e, 0x3c, 0xef, 0x12, 0x9b, 0x3d,
  0x56, 0x49, 0x0e, 0xbe, 0x56, 0xcd, 0x6c, 0xbd, 0xc6, 0xa9, 0x86, 0xbd,
  0xf0, 0x22, 0x68, 0x3d, 0x72, 0x2f, 0x15, 0xbe, 0xcc, 0x3f, 0x3e, 0xbd,
  0xce, 0x26, 0x68, 0x3d, 0x21, 0xa5, 0x4a, 0xbd, 0xc3, 0x91, 0x2a, 0xbe,
  0x96, 0xd7, 0x45, 0xbd, 0x91, 0xf6, 0x95, 0x3d, 0x35, 0xc7, 0xc6, 0x3d,
  0xfd, 0xae, 0x3b, 0xbd, 0x7e, 0x30, 0xe4, 0x3c, 0xa8, 0xad, 0x00, 0x3e,
  0x11, 0x02, 0x9c, 0x3d, 0x69, 0xea, 0xeb, 0xbd, 0xf9, 0x73, 0x04, 0xba,
  0x15, 0x73, 0x8c, 0x3d, 0x5d, 0x78, 0xd4, 0x3c, 0x21, 0x9f, 0xfc, 0xbb,
  0xb4, 0xf5, 0x0f, 0x3e, 0xe0, 0xcd, 0x11, 0x3e, 0x54, 0x2c, 0xdf, 0xbb,
  0x60, 0x93, 0xc6, 0xbd, 0x80, 0xbb, 0x01, 0x3e, 0xa1, 0x04, 0x9b, 0x3d,
  0xd3, 0xcc, 0xd5, 0xbd, 0x8b, 0x8b, 0x24, 0xbb, 0x3f, 0x06, 0xec, 0x3d,
  0x2a, 0xca, 0xb3, 0x3d, 0x86, 0x19, 0xb5, 0xbd, 0x79, 0x11, 0xf3, 0xbc,
  0x65, 0xbf, 0x00, 0x3c, 0x68, 0xfb, 0x56, 0x3d, 0x97, 0xff, 0x6d, 0xbd,
  0x35, 0x4c, 0x0d, 0xbe, 0x80, 0x7c, 0xee, 0xbc, 0xd4, 0x93, 0x7c, 0x3d,
  0xe4, 0x2b, 0x67, 0xbd, 0x4c, 0x30, 0x15, 0xbe, 0x0e, 0xd8, 0xf7, 0x3d,
  0x0c, 0x47, 0xb1, 0x3d, 0x6e, 0x01, 0x03, 0xbe, 0xe7, 0xf8, 0x27, 0xbd,
  0x11, 0x6b, 0x97, 0x3d, 0x24, 0xfe, 0xbb, 0xbd, 0x31, 0xec, 0x35, 0xbe,
  0x9b, 0xa8, 0x03, 0xbd, 0x06, 0xe7, 0x93, 0x3c, 0xa9, 0xb0, 0x2d, 0x3d,
  0x7b, 0xc7, 0xe5, 0xbd, 0x8e, 0x2a, 0xed, 0xbd, 0x19, 0x81, 0xd5, 0x3c,
  0xc9, 0xc5, 0xdf, 0xbd, 0x9f, 0xf4, 0x50, 0xbe, 0x6b, 0x03, 0x09, 0xbe,
  0xd6, 0x35, 0xf3, 0xbb, 0xf0, 0x0b, 0x2c, 0x3d, 0x71, 0x1e, 0x77, 0xbe,
  0xff, 0xa4, 0x34, 0xbd, 0x19, 0x47, 0x63, 0x3d, 0xdb, 0x90, 0x4e, 0x3c,
  0x4d, 0x0f, 0xe1, 0xbd, 0x20, 0x52, 0xba, 0xbd, 0xf5, 0x7d, 0x04, 0x3d,
  0xb5, 0xa3, 0x8a, 0xbd, 0xe2, 0x59, 0x21, 0xbe, 0x67, 0xdc, 0x8c, 0xbd,
  0xc6, 0x04, 0x1e, 0xbd, 0x25, 0x71, 0x74, 0x3d, 0x7e, 0x09, 0x28, 0xbe,
  0x0a, 0xae, 0xe7, 0xbd, 0xae, 0x5a, 0x3d, 0xbd, 0x5d, 0xe3, 0x00, 0x3d,
  0xb9, 0x33, 0x04, 0xbe, 0xa6, 0x73, 0xed, 0xbd, 0x93, 0xc3, 0xd4, 0x3c,
  0x50, 0x0a, 0x5e, 0xbd, 0xb3, 0xb2, 0x09, 0xbe, 0xa7, 0xb1, 0xa0, 0x39,
  0x1d, 0xe2, 0x0d, 0x3e, 0x60, 0xcf, 0xc7, 0xbd, 0xdb, 0x2e, 0x38, 0xbd,
  0xde, 0xe3, 0x4d, 0xbd, 0x25, 0xd4, 0x5d, 0x3d, 0xc0, 0xc3, 0x56, 0x3c,
  0x54, 0xb6, 0x26, 0xbe, 0x19, 0x2b, 0x95, 0xbd, 0x7c, 0x72, 0xee, 0x3d,
  0x42, 0xfc, 0xb9, 0xbc, 0x30, 0x86, 0x59, 0xbe, 0x87, 0x27, 0x15, 0x3d,
  0x54, 0xd2, 0xf8, 0x3d, 0x00, 0xb3, 0x8a, 0x3d, 0xfc, 0xad, 0x35, 0xbe,
  0x44, 0x71, 0x69, 0xbd, 0x42, 0x4b, 0x08, 0x3e, 0xea, 0x91, 0xe6, 0x3d,
  0x55, 0xec, 0x22, 0xbe, 0x8b, 0xcb, 0x57, 0x3d, 0x5f, 0x80, 0xd0, 0x3d,
  0x0d, 0x26, 0xa5, 0x3d, 0x46, 0x6d, 0xe2, 0xbd, 0x16, 0x94, 0x48, 0xbd,
  0x71, 0xdd, 0x8a, 0x3d, 0x9e, 0x76, 0xae, 0x3c, 0x66, 0xb2, 0x12, 0xbe,
  0xfc, 0x65, 0x92, 0x3c, 0x20, 0xc5, 0x22, 0x3e, 0xd5, 0x75, 0x08, 0x3e,
  0x67, 0x83, 0x19, 0xbe, 0xe9, 0x4d, 0x8c, 0xbd, 0x5c, 0xeb, 0xdd, 0x3d,
  0xf4, 0x15, 0x2c, 0xbd, 0x4d, 0x63, 0x8f, 0xbd, 0x79, 0x4e, 0xac, 0xbc,
  0x9b, 0x54, 0xac, 0x3d, 0xc5, 0xe8, 0xb9, 0x3d, 0xaf, 0xc4, 0x1b, 0xbe,
  0x0d, 0x8b, 0x21, 0xbd, 0xa9, 0x35, 0x3d, 0x3c, 0x40, 0x17, 0xd4, 0x3c,
  0x9b, 0xa0, 0x27, 0xbe, 0x0a, 0x7e, 0xec, 0x3d, 0xc1, 0x0d, 0xb2, 0x3d,
  0x3a, 0x03, 0x27, 0xbd, 0x39, 0x87, 0x5f, 0xbe, 0x63, 0xad, 0xba, 0xbd,
  0xa2, 0xc5, 0x11, 0x3e, 0xe9, 0x28, 0x20, 0x3d, 0xad, 0x72, 0x77, 0xbe,
  0xe1, 0xb4, 0xd6, 0x3c, 0x67, 0xc6, 0x2c, 0x3d, 0xad, 0xe6, 0xc7, 0x3c,
  0x59, 0x90, 0xb0, 0xbd, 0x6d, 0x51, 0x5b, 0xbd, 0x84, 0x49, 0x28, 0x3e,
  0x3b, 0x3c, 0xed, 0x3d, 0x57, 0xec, 0x3f, 0xbe, 0x6a, 0x69, 0x0c, 0x3d,
  0xe0, 0x71, 0xb8, 0x3d, 0x2e, 0x46, 0xb1, 0x3c, 0xe0, 0x43, 0x1a, 0xbe,
  0xb5, 0x35, 0xae, 0xbd, 0xad, 0x4a, 0x8f, 0x3d, 0xad, 0x59, 0xac, 0xbc,
  0x33, 0xb5, 0xfc, 0xbd, 0x14, 0x34, 0xbb, 0xbb, 0x23, 0xe0, 0x51, 0xbc,
  0xf8, 0xe0, 0xe5, 0x3d, 0xe1, 0x8b, 0x9b, 0xbd, 0x72, 0xbf, 0x8f, 0x3d,
  0xb5, 0xce, 0x60, 0x3c, 0x82, 0x99, 0xc1, 0x3d, 0x33, 0xcb, 0xd5, 0xbc,
  0xf2, 0x15, 0x36, 0x3d, 0xc2, 0x38, 0x4a, 0x3d, 0x9b, 0x86, 0x3a, 0xbd,
  0xf8, 0x84, 0x40, 0xbe, 0xe0, 0x3c, 0xca, 0xbb, 0x25, 0xf5, 0x90, 0x3d,
  0xad, 0x32, 0xbe, 0xba, 0x94, 0xf4, 0x31, 0xbe, 0x6c, 0xd5, 0x71, 0x3d,
  0x9e, 0x87, 0x0e, 0x3e, 0x43, 0x27, 0x0b, 0x3d, 0x19, 0x50, 0xc0, 0xbd,
  0xed, 0x87, 0x7d, 0xbd, 0x0a, 0x45, 0xf5, 0x3d, 0x60, 0xb1, 0xe5, 0x3c,
  0x96, 0x44, 0x96, 0xbd, 0x77, 0xa7, 0x8a, 0xbd, 0x68, 0x7a, 0x7a, 0x3d,
  0xbe, 0x72, 0xa0, 0x3d, 0xaa, 0xcb, 0x23, 0xbd, 0x49, 0x6e, 0xfb, 0xbd,
  0x7c, 0x6a, 0xe0, 0x3d, 0x91, 0x13, 0xe8, 0xbc, 0x2b, 0xd2, 0x07, 0xbe,
  0x99, 0xfe, 0xd0, 0xbd, 0x3e, 0xd8, 0x10, 0x3e, 0xa2, 0xce, 0x3a, 0xbb,
  0x88, 0xce, 0x8c, 0xbd, 0xca, 0x9e, 0x40, 0x3d, 0x47, 0x06, 0x85, 0x3d,
  0x5c, 0x3c, 0x00, 0x3e, 0x0e, 0x74, 0x33, 0xbc, 0x89, 0xde, 0x67, 0x3d,
  0x2f, 0x6e, 0x23, 0x3e, 0xf0, 0x65, 0xfd, 0x3d, 0xde, 0x34, 0x4c, 0xbd,
  0x7c, 0x09, 0x6f, 0xbc, 0x5f, 0xbd, 0xd8, 0x3d, 0xbe, 0xe5, 0x95, 0x3a,
  0x78, 0x1f, 0xa5, 0xbd, 0xba, 0x23, 0x01, 0x3d, 0x7b, 0x4b, 0xa1, 0x3d,
  0x78, 0xd9, 0xc3, 0x3b, 0x9b, 0xf2, 0xb6, 0xbb, 0xfa, 0xf5, 0x46, 0xbb,
  0xfa, 0xa6, 0xe1, 0xbc, 0xb3, 0x5a, 0xd5, 0x3c, 0x39, 0xea, 0x80, 0x3d,
  0x1c, 0x78, 0x38, 0xbe, 0xb7, 0x01, 0x6a, 0xbd, 0xc1, 0xa8, 0xaa, 0xbd,
  0x70, 0xe5, 0x88, 0xbd, 0xa0, 0xcc, 0xa9, 0xbd, 0x0c, 0xd5, 0xa8, 0x3d,
  0xfb, 0x68, 0x17, 0xbd, 0x7f, 0xf4, 0x39, 0x3d, 0x81, 0x72, 0xcc, 0xbd,
  0x79, 0x42, 0xc6, 0x3d, 0x06, 0x4c, 0x85, 0xbc, 0x45, 0xa6, 0xac, 0xbd,
  0xad, 0x5e, 0xcc, 0x3b, 0x8d, 0x54, 0x21, 0x3e, 0xa9, 0x20, 0x59, 0xbd,
  0x85, 0x5f, 0xce, 0xbd, 0xf6, 0x51, 0x71, 0xbd, 0x29, 0x87, 0x33, 0xbd,
  0xdf, 0x82, 0x15, 0x3d, 0x10, 0xd4, 0x64, 0xbd, 0x18, 0x18, 0xda, 0xbd,
  0xf4, 0xfd, 0x2a, 0xbd, 0xfe, 0x6d, 0xe1, 0x3d, 0x00, 0x20, 0x69, 0xbd,
  0x57, 0xc6, 0xcb, 0xbd, 0x25, 0x2c, 0x88, 0xbc, 0x55, 0xf4, 0xce, 0x3a,
  0x59, 0x2b, 0x19, 0xbe, 0x90, 0x01, 0x95, 0xbd, 0xd6, 0x8e, 0xc2, 0xbc,
  0x78, 0x4d, 0xea, 0x3d, 0x0d, 0x12, 0xe7, 0xbd, 0x16, 0x46, 0x75, 0xbd,
  0xfa, 0x4b, 0xdf, 0x3d, 0x3d, 0x95, 0x8c, 0x3d, 0xcc, 0xc8, 0x6b, 0x3b,
  0xfd, 0x76, 0x8a, 0x3d, 0x0b, 0xfe, 0xb1, 0x3c, 0x8c, 0x00, 0x1d, 0x3d,
  0xd5, 0x48, 0xc8, 0xbd, 0x9e, 0xa8, 0x27, 0xbc, 0x0e, 0x33, 0x29, 0x3e,
  0x11, 0x46, 0xf9, 0x3b, 0x9d, 0x2e, 0x3c, 0xbd, 0xe6, 0x2e, 0x19, 0xba,
  0xfc, 0x86, 0x1a, 0x3d, 0x2d, 0x7c, 0x16, 0xbe, 0xf7, 0x96, 0x19, 0xbe,
  0x10, 0xed, 0xe5, 0xbb, 0xdb, 0x2f, 0x2a, 0x3e, 0x6b, 0xe3, 0x32, 0x3c,
  0xe6, 0xe1, 0x22, 0xbd, 0x31, 0x31, 0x0c, 0x3d, 0xc0, 0x35, 0x0a, 0x3e,
  0x0b, 0xe0, 0xa2, 0x3c, 0xaf, 0x0b, 0xeb, 0xbd, 0x82, 0x06, 0xf2, 0xbd,
  0x4f, 0xc7, 0xd2, 0x3d, 0x8d, 0x36, 0xf6, 0x3c, 0xbc, 0x3b, 0x19, 0xbd,
  0x36, 0xbf, 0x93, 0xbd, 0x19, 0x21, 0xe2, 0x3d, 0x1d, 0x6e, 0x03, 0xbe,
  0x77, 0xba, 0x11, 0xbe, 0x88, 0x57, 0x22, 0xbd, 0xa1, 0xdc, 0x04, 0x3e,
  0x69, 0x30, 0xf1, 0x3b, 0xa0, 0xb0, 0xc8, 0xbd, 0x2c, 0x56, 0xc5, 0xbd,
  0x4d, 0x3a, 0x4c, 0xbd, 0x17, 0x4a, 0xd5, 0x3d, 0xbd, 0x1c, 0x1f, 0xbe,
  0x84, 0xc6, 0x95, 0x3d, 0x50, 0xe5, 0x13, 0x3d, 0xd6, 0xab, 0x06, 0xbd,
  0x96, 0x12, 0xa8, 0xbd, 0x25, 0xde, 0x3c, 0xbc, 0x72, 0x9b, 0x37, 0x3d,
  0x68, 0x36, 0x13, 0xbc, 0x28, 0x03, 0x0d, 0xbd, 0xf4, 0x39, 0x29, 0xbd,
  0xf7, 0xfe, 0x00, 0x3e, 0xbe, 0x0d, 0x98, 0x3d, 0x27, 0x9c, 0x1b, 0xbe,
  0xc7, 0xf7, 0xe5, 0x3c, 0x13, 0x0f, 0xf7, 0x3c, 0x8a, 0xf3, 0x1a, 0xbd,
  0x34, 0x01, 0x0e, 0xbe, 0x16, 0xa2, 0xa4, 0x3c, 0x3b, 0xdb, 0x9f, 0xbc,
  0x3d, 0x04, 0x04, 0xbd, 0xe4, 0x4e, 0xdc, 0xbb, 0xae, 0x0d, 0xc9, 0xbd,
  0x78, 0xf4, 0xda, 0xbc, 0xd5, 0x3f, 0xef, 0x3d, 0x82, 0xfa, 0xeb, 0xbd,
  0xd8, 0xe9, 0xcc, 0xbd, 0x5c, 0x00, 0x32, 0x3d, 0xab, 0x6c, 0x22, 0xbd,
  0x5a, 0x0e, 0x6a, 0xbd, 0xac, 0x82, 0x0d, 0xbd, 0x28, 0x49, 0x5b, 0x3d,
  0xa7, 0x2a, 0xa1, 0x3d, 0x03, 0xea, 0xdc, 0xbd, 0x25, 0xd1, 0x11, 0xbc,
  0xaf, 0x1f, 0x08, 0x39, 0x0a, 0x09, 0x86, 0xbd, 0x35, 0xfe, 0x3b, 0xbd,
  0x1b, 0xa5, 0x8f, 0xbc, 0xd2, 0xf7, 0x56, 0x3d, 0xbb, 0xc1, 0x0d, 0x3d,
  0xe4, 0xdf, 0x9a, 0xbd, 0xe3, 0x88, 0x22, 0xbc, 0xad, 0x4b, 0x7a, 0x3d,
  0x51, 0x65, 0x6d, 0x3c, 0x46, 0xbd, 0xfe, 0xbc, 0x29, 0x89, 0x83, 0xbd,
  0x93, 0x9d, 0xbb, 0x3d, 0xa2, 0xa9, 0xc2, 0x3d, 0xbf, 0x72, 0xfc, 0xbd,
  0x31, 0xae, 0x68, 0xbc, 0xe9, 0xff, 0x55, 0x3d, 0x89, 0x6e, 0xa1, 0x3b,
  0x3a, 0x77, 0x03, 0xbe, 0x42, 0xee, 0xbb, 0xbd, 0x3f, 0x2f, 0x8d, 0x3c,
  0x31, 0x8a, 0x42, 0x3e, 0x9b, 0xe0, 0x21, 0xbd, 0x71, 0x46, 0x83, 0xbc,
  0xbb, 0xc9, 0xae, 0x3d, 0x85, 0x59, 0xc1, 0xbb, 0x21, 0x6d, 0xdf, 0xbc,
  0x8b, 0xa1, 0x3d, 0xbd, 0x98, 0xb7, 0x45, 0x3e, 0x92, 0x97, 0xce, 0x3c,
  0x14, 0x25, 0x10, 0xbe, 0x53, 0x88, 0x22, 0x3d, 0x96, 0xaa, 0x15, 0x3e,
  0xb5, 0x9f, 0xad, 0x3d, 0xd5, 0x31, 0x0f, 0xbe, 0x49, 0x2e, 0xd4, 0x3d,
  0xd7, 0x3f, 0xe5, 0x3d, 0x72, 0x49, 0x75, 0x3d, 0xce, 0x82, 0x3d, 0xbc,
  0x0f, 0x5a, 0x0d, 0x3e, 0xc6, 0x4c, 0x28, 0x3d, 0x31, 0x26, 0x5c, 0xbd,
  0x9d, 0x09, 0xd4, 0xbd, 0x67, 0xe8, 0x20, 0x3d, 0xca, 0x56, 0x86, 0x3d,
  0x5b, 0xc9, 0x48, 0x3e, 0x0f, 0x0e, 0x1f, 0x3c, 0xff, 0x6d, 0xb5, 0x3d,
  0x77, 0x5f, 0xe7, 0xbc, 0xff, 0x5e, 0xbd, 0x3d, 0x0b, 0x50, 0xae, 0xbd,
  0xcf, 0xc9, 0x36, 0x3e, 0x6b, 0x99, 0x92, 0xbd, 0x0b, 0xbe, 0x7b, 0xbc,
  0xcf, 0xc9, 0xe7, 0xbd, 0x1a, 0x98, 0x6d, 0x3d, 0x75, 0xbf, 0x39, 0xbd,
  0x64, 0x9f, 0x92, 0x3d, 0x51, 0x21, 0x02, 0xbe, 0x71, 0x04, 0x3e, 0xbc,
  0x12, 0x08, 0xd9, 0x3d, 0x31, 0xab, 0x9d, 0x3d, 0x35, 0xeb, 0xa3, 0xbd,
  0xfa, 0x5d, 0x0e, 0x3e, 0xc9, 0x13, 0x39, 0x3d, 0x22, 0xf1, 0xc5, 0x3d,
  0x95, 0xfb, 0x90, 0xbd, 0xb3, 0xb0, 0x22, 0x3e, 0xf5, 0x99, 0xe0, 0x3d,
  0x12, 0x5b, 0x94, 0xbc, 0x9b, 0x78, 0x25, 0xbe, 0x31, 0x70, 0x26, 0x3d,
  0x23, 0xf2, 0x7f, 0xbd, 0x1a, 0x0c, 0x1f, 0x3e, 0x4a, 0x93, 0xdb, 0xbd,
  0x09, 0x72, 0x15, 0xbd, 0xc8, 0x48, 0x13, 0x3e, 0x26, 0x69, 0xcc, 0x3d,
  0x2d, 0xd2, 0xdb, 0xbd, 0xaf, 0xa7, 0x16, 0x3e, 0xe8, 0xb4, 0xac, 0xb9,
  0x88, 0xf4, 0xd8, 0x3b, 0x41, 0x64, 0xd8, 0xbd, 0x98, 0xfd, 0x06, 0x3d,
  0xde, 0x2c, 0x3b, 0x3e, 0xeb, 0x25, 0x21, 0x3e, 0xfe, 0x81, 0x28, 0xbe,
  0x74, 0x64, 0x88, 0x3c, 0x1d, 0x84, 0x0d, 0x3e, 0x91, 0x03, 0x7e, 0x3d,
  0xc9, 0x04, 0xcb, 0xbd, 0xdb, 0x0c, 0xcc, 0x3c, 0x10, 0x01, 0x1a, 0x3e,
  0x28, 0x13, 0x86, 0x3d, 0xd7, 0x56, 0xff, 0xbd, 0x08, 0xcd, 0xa8, 0x3d,
  0xa1, 0xc5, 0x6c, 0x3d, 0x7a, 0xe4, 0xac, 0x3d, 0xd5, 0xd4, 0xff, 0xbd,
  0x6d, 0xd4, 0xa8, 0x3d, 0xb1, 0xd1, 0x1d, 0x3e, 0xa2, 0xc2, 0x12, 0x3d,
  0xf6, 0x95, 0x50, 0x3b, 0x77, 0x51, 0x43, 0xbd, 0xe5, 0x8f, 0xb8, 0x3c,
  0xda, 0x69, 0x0a, 0x3e, 0x5e, 0xc8, 0x08, 0xbd, 0xf8, 0xa6, 0x41, 0xbd,
  0x0d, 0x5d, 0xaa, 0x3c, 0xac, 0x74, 0xba, 0x3c, 0xca, 0x92, 0xbd, 0xbd,
  0xd7, 0xfb, 0x34, 0x3c, 0xcb, 0x46, 0x8b, 0x3d, 0x4e, 0x51, 0x9e, 0x3d,
  0x06, 0x63, 0x42, 0xbc, 0x39, 0x29, 0xbf, 0x3c, 0x66, 0x11, 0x08, 0xbd,
  0x2c, 0xb8, 0x5c, 0x3c, 0xcd, 0xb4, 0x1c, 0xbd, 0x08, 0x0e, 0x25, 0x3c,
  0x9c, 0xcf, 0xc4, 0xbc, 0x38, 0x9b, 0x69, 0x3d, 0x0f, 0xf2, 0xfe, 0x3c,
  0x67, 0x4d, 0x78, 0x3b, 0x4f, 0x5c, 0x4c, 0xbd, 0x46, 0xe3, 0x84, 0xbd,
  0xff, 0xef, 0x1a, 0x3e, 0x2b, 0x97, 0x8b, 0x3d, 0x96, 0xca, 0x37, 0x3c,
  0x5d, 0x30, 0x24, 0x3d, 0xa5, 0x53, 0x48, 0xbb, 0x1f, 0x78, 0xe4, 0x3c,
  0xbe, 0x69, 0x39, 0xbd, 0xf5, 0xae, 0x2a, 0x3d, 0x21, 0x72, 0x2d, 0x3e,
  0xd9, 0xd6, 0xe0, 0x3d, 0x59, 0xe1, 0xdf, 0xbd, 0x81, 0x61, 0xc2, 0x3a,
  0x72, 0xa7, 0x1e, 0x3d, 0xee, 0xe6, 0x12, 0xbd, 0x08, 0x70, 0x51, 0x3c,
  0xdf, 0xc5, 0xa9, 0xbd, 0xde, 0x0b, 0x0f, 0x3e, 0x12, 0x3d, 0x93, 0x3d,
  0x50, 0xdc, 0x2b, 0xbc, 0xe8, 0x93, 0xd9, 0xbb, 0x15, 0x84, 0x1d, 0x3d,
  0xa7, 0x9d, 0x4e, 0xbd, 0x85, 0xf2, 0x44, 0xbe, 0x27, 0xf8, 0x51, 0xbd,
  0xf6, 0x5b, 0x0b, 0x3e, 0x9f, 0xb2, 0xcb, 0x3d, 0xe8, 0x17, 0x5e, 0xbd,
  0x38, 0xba, 0x7f, 0xbd, 0x18, 0x61, 0xf2, 0x3d, 0xe3, 0x96, 0x2c, 0x3d,
  0x7b, 0x15, 0x8e, 0xbd, 0x55, 0x84, 0x73, 0x3d, 0x05, 0xfb, 0x89, 0x3d,
  0x80, 0x96, 0x18, 0x3d, 0x46, 0xc6, 0xd3, 0x3c, 0x74, 0x52, 0x5a, 0x3d,
  0xf5, 0x13, 0xf7, 0x3d, 0x90, 0xe7, 0xa9, 0xbb, 0x09, 0xbb, 0xa6, 0xbd,
  0x6f, 0x3b, 0x7d, 0x3d, 0x2e, 0x2c, 0xbb, 0x3d, 0xf2, 0xf4, 0xb6, 0xbc,
  0xfc, 0x81, 0xef, 0xbd, 0xb0, 0x80, 0x86, 0xbc, 0x10, 0xdd, 0x82, 0x3e,
  0x67, 0xe7, 0x90, 0xbd, 0x0c, 0x40, 0xae, 0xbc, 0x8c, 0xde, 0x0b, 0xbd,
  0xd0, 0x43, 0x32, 0x3e, 0xc7, 0xb0, 0xbd, 0xbc, 0x5d, 0x4d, 0x57, 0xbd,
  0xb3, 0xec, 0x66, 0x3d, 0x9f, 0xfe, 0x23, 0x3e, 0x8a, 0xfa, 0xc9, 0x3c,
  0xd7, 0x52, 0x29, 0xbe, 0x11, 0xac, 0x3a, 0x3d, 0x6a, 0xcf, 0x85, 0x3d,
  0x14, 0x35, 0x13, 0xbd, 0xf2, 0xf6, 0x24, 0xbe, 0x75, 0x81, 0x74, 0xbd,
  0xbc, 0x46, 0xb8, 0x3d, 0xe9, 0x7b, 0x3e, 0xbd, 0x3d, 0xaf, 0x44, 0xbe,
  0xf4, 0xc1, 0xdd, 0xbd, 0x90, 0x0a, 0x02, 0x3e, 0xc1, 0xf9, 0x52, 0xbd,
  0x8c, 0xb5, 0xaf, 0xbd, 0x7c, 0xec, 0x90, 0xbc, 0x81, 0x08, 0x5d, 0x3e,
  0xea, 0xfa, 0x96, 0x3d, 0xfa, 0xe0, 0xec, 0xbd, 0x3b, 0x8d, 0x87, 0xbd,
  0x60, 0x12, 0x60, 0x3d, 0x8f, 0x2a, 0x80, 0xbd, 0xc0, 0x78, 0x19, 0xbe,
  0x21, 0xf6, 0xee, 0xbb, 0xe2, 0x66, 0x0b, 0x3e, 0x48, 0x5a, 0x48, 0xbd,
  0xfb, 0x6f, 0x24, 0xbd, 0xda, 0x1a, 0x02, 0xbd, 0x72, 0xf3, 0xfe, 0x3d,
  0x9c, 0x68, 0x42, 0xbd, 0x11, 0x9c, 0x1a, 0xbe, 0xc6, 0xe3, 0x21, 0xbd,
  0xef, 0x19, 0x3a, 0x3e, 0x5a, 0x9c, 0xaa, 0xbc, 0xa2, 0xaa, 0x1e, 0xbe,
  0xaa, 0x89, 0xcd, 0xbc, 0x4f, 0xe6, 0x82, 0x3e, 0xaf, 0xdc, 0x57, 0x3d,
  0xc6, 0x36, 0x59, 0xbe, 0x8c, 0x6c, 0xf1, 0x3c, 0x42, 0xa3, 0xfe, 0x3d,
  0xd4, 0xd9, 0x8d, 0x3d, 0x78, 0x73, 0xce, 0xbd, 0xc4, 0xe5, 0xc4, 0x3d,
  0x6b, 0x82, 0x4d, 0x3e, 0x97, 0x65, 0x2f, 0xbd, 0x62, 0x4a, 0xd1, 0xbd,
  0x76, 0xad, 0x53, 0x3b, 0x68, 0xbc, 0xbe, 0x3d, 0xa7, 0x4b, 0x6a, 0x3d,
  0xb9, 0x50, 0x56, 0xbe, 0x61, 0x60, 0x63, 0x3d, 0xf5, 0x84, 0x33, 0x3e,
  0xe6, 0x7d, 0xfb, 0xbd, 0x6a, 0xfc, 0x20, 0xbe, 0x74, 0xfb, 0xb0, 0x3d,
  0x7f, 0x88, 0x50, 0x3e, 0x50, 0xb1, 0x88, 0xbd, 0x43, 0xe4, 0x85, 0xbe,
  0xef, 0xa2, 0x71, 0x3d, 0xb7, 0xad, 0x29, 0x3e, 0xb4, 0x9f, 0x08, 0xbd,
  0x89, 0xbd, 0x43, 0xbe, 0xd7, 0xe2, 0x0f, 0xbd, 0x49, 0xa6, 0x93, 0x3e,
  0xc6, 0x36, 0x85, 0x3d, 0x1d, 0x61, 0x87, 0xbe, 0x3a, 0xf8, 0x9f, 0x3c,
  0x26, 0xb7, 0x34, 0x3e, 0x10, 0x59, 0xf0, 0x3d, 0x94, 0x1d, 0x86, 0xbe,
  0x45, 0xf2, 0xa0, 0x3d, 0xcd, 0x42, 0xab, 0x3d, 0x16, 0xc0, 0xd6, 0xbd,
  0x6b, 0x70, 0x27, 0xbe, 0x27, 0x72, 0x5e, 0xbd, 0x5e, 0x22, 0x45, 0x3e,
  0xc4, 0x48, 0x35, 0x3d, 0x04, 0xa7, 0xb0, 0xbd, 0x28, 0x2b, 0x04, 0xbd,
  0xa4, 0x4f, 0xc1, 0x3d, 0xc8, 0x81, 0x9f, 0x3d, 0xa7, 0x5f, 0x85, 0xbe,
  0xa0, 0x24, 0xf3, 0x3d, 0x58, 0x7e, 0x56, 0x3e, 0x3b, 0x0b, 0x0b, 0x3d,
  0x3b, 0x28, 0x00, 0xbe, 0x08, 0x71, 0x5e, 0x3d, 0xc4, 0x98, 0x5d, 0x3e,
  0xa9, 0xa3, 0xc6, 0x3d, 0xe2, 0x30, 0x14, 0xbe, 0x4a, 0xba, 0x42, 0x3d,
  0x80, 0x09, 0x47, 0x3e, 0x7e, 0xa3, 0x96, 0x3d, 0x37, 0x9c, 0x2b, 0xbe,
  0xe7, 0xc3, 0xb7, 0x3c, 0x40, 0x7a, 0xdd, 0x3d, 0x3e, 0x8f, 0x91, 0x3d,
  0x2f, 0xb9, 0x39, 0xbe, 0x65, 0xb1, 0xc4, 0x3d, 0xae, 0xcc, 0x81, 0x3e,
  0x7b, 0xb2, 0xc5, 0x3d, 0x47, 0x94, 0x5b, 0xbe, 0x04, 0x37, 0xf5, 0x3d,
  0xb0, 0x8a, 0x54, 0x3e, 0x9e, 0xfc, 0xff, 0xff, 0x04, 0x00, 0x00, 0x00,
  0x30, 0x00, 0x00, 0x00, 0x6a, 0x20, 0xb8, 0x3e, 0x9d, 0x8f, 0xd0, 0xbe,
  0x78, 0x9a, 0xe4, 0x3e, 0xdf, 0x7f, 0xcd, 0x3e, 0xed, 0xc7, 0x5b, 0x3c,
  0xab, 0x11, 0x09, 0xbe, 0x27, 0xb4, 0x53, 0x3e, 0x95, 0x7c, 0x0c, 0x3f,
  0xf3, 0x65, 0x0b, 0x3f, 0xdc, 0x98, 0x32, 0x3f, 0x73, 0xb8, 0x8e, 0x3d,
  0x91, 0x48, 0x19, 0x3f, 0xda, 0xfc, 0xff, 0xff, 0x04, 0x00, 0x00, 0x00,
  0x30, 0x00, 0x00, 0x00, 0xcc, 0x42, 0xec, 0x3d, 0x82, 0xf4, 0xa0, 0x3e,
  0x3b, 0x50, 0x2f, 0x3e, 0x55, 0xd4, 0x96, 0xbe, 0x46, 0x35, 0xf2, 0x3c,
  0x5d, 0xe1, 0xde, 0x3d, 0xb5, 0xa7, 0x16, 0xbe, 0x3f, 0xdd, 0x6e, 0xbe,
  0x8f, 0xd2, 0xdf, 0x3e, 0x84, 0x8f, 0xd1, 0x3e, 0xc0, 0xe0, 0xdd, 0xbe,
  0x69, 0x7f, 0xce, 0x3c, 0x16, 0xfd, 0xff, 0xff, 0x04, 0x00, 0x00, 0x00,
  0x30, 0x00, 0x00, 0x00, 0x6d, 0xaa, 0x5d, 0xbe, 0x35, 0x67, 0xee, 0x3e,
  0xf1, 0x49, 0x65, 0x3d, 0x58, 0x00, 0x2f, 0x3f, 0x3c, 0xa9, 0x9d, 0x3e,
  0x22, 0x97, 0xe1, 0xbc, 0xcf, 0x59, 0xe3, 0x3e, 0x8f, 0x17, 0x43, 0x3f,
  0x94, 0x80, 0x68, 0x3d, 0x3b, 0xe3, 0x3f, 0x3f, 0x18, 0x1d, 0xb1, 0x3e,
  0xdd, 0xdc, 0x57, 0xbe, 0x52, 0xfd, 0xff, 0xff, 0x04, 0x00, 0x00, 0x00,
  0x30, 0x00, 0x00, 0x00, 0x26, 0xe8, 0x06, 0xbf, 0x27, 0x5b, 0xe8, 0x3d,
  0xd2, 0x8d, 0xd7, 0x3e, 0xf2, 0xa4, 0x8e, 0xbe, 0x7d, 0xe2, 0xab, 0xbe,
  0x4f, 0xd5, 0x28, 0x3f, 0x04, 0xfd, 0x91, 0xbe, 0xed, 0x60, 0x09, 0x3f,
  0xa4, 0xc1, 0x88, 0x3d, 0x9d, 0x5c, 0xd6, 0x3e, 0x14, 0xdf, 0xcb, 0xbe,
  0xe6, 0xb4, 0x40, 0x3e, 0x8e, 0xfd, 0xff, 0xff, 0x04, 0x00, 0x00, 0x00,
  0x10, 0x00, 0x00, 0x00, 0x4f, 0xd3, 0xee, 0xbd, 0xbf, 0xc2, 0x57, 0xbb,
  0x88, 0x5a, 0x3a, 0x3e, 0xf4, 0xd7, 0x17, 0x3d, 0xaa, 0xfd, 0xff, 0xff,
  0x04, 0x00, 0x00, 0x00, 0x10, 0x00, 0x00, 0x00, 0xcc, 0x0b, 0x6a, 0xbe,
  0x2e, 0xac, 0xae, 0x3d, 0x09, 0xcf, 0x0f, 0x3d, 0x08, 0x84, 0x7b, 0xbc,
  0xc6, 0xfd, 0xff, 0xff, 0x04, 0x00, 0x00, 0x00, 0x10, 0x00, 0x00, 0x00,
  0xe3, 0x46, 0x4d, 0x3f, 0xdc, 0xee, 0x57, 0x3f, 0x6b, 0xa2, 0x7d, 0x3f,
  0x54, 0x7e, 0x50, 0x3f, 0xe2, 0xfd, 0xff, 0xff, 0x04, 0x00, 0x00, 0x00,
  0x10, 0x00, 0x00, 0x00, 0xc5, 0xcd, 0x40, 0xbe, 0x6c, 0xf5, 0xd3, 0x3c,
  0x5e, 0x64, 0x50, 0x3e, 0xb3, 0x43, 0x2b, 0x3d, 0xfe, 0xfd, 0xff, 0xff,
  0x04, 0x00, 0x00, 0x00, 0x40, 0x00, 0x00, 0x00, 0x66, 0x90, 0x9e, 0xbc,
  0xcc, 0x35, 0x8d, 0xbe, 0x53, 0xea, 0x0b, 0xbd, 0x34, 0x2a, 0xd2, 0x3e,
  0x79, 0x5f, 0x94, 0xbd, 0xc1, 0x59, 0x83, 0x3e, 0x85, 0x44, 0xa8, 0x3e,
  0x54, 0xec, 0x5d, 0x3d, 0x77, 0xd6, 0x17, 0xbe, 0xfb, 0x35, 0x2b, 0xbe,
  0x48, 0x4b, 0x8c, 0x3e, 0x34, 0x84, 0x17, 0x3f, 0x26, 0x01, 0xdd, 0x3d,
  0x0c, 0x3d, 0x19, 0xbf, 0xb5, 0x78, 0x22, 0xbe, 0x92, 0x99, 0xa6, 0xbe,
  0x4a, 0xfe, 0xff, 0xff, 0x04, 0x00, 0x00, 0x00, 0x40, 0x00, 0x00, 0x00,
  0xa7, 0x54, 0xcf, 0xbe, 0x04, 0xef, 0x0d, 0x3d, 0x92, 0xf1, 0x7b, 0xbe,
  0x37, 0x88, 0x7f, 0xbd, 0x81, 0x7b, 0x6f, 0xbd, 0x2f, 0x35, 0xf8, 0xbd,
  0x21, 0x22, 0x37, 0x3f, 0xab, 0x93, 0xc3, 0xbe, 0xb4, 0x74, 0xaa, 0xbe,
  0x20, 0xa2, 0x5d, 0x3e, 0xb6, 0x89, 0x00, 0xbe, 0x80, 0x83, 0x0c, 0x3e,
  0x60, 0x60, 0xfb, 0x3c, 0x3e, 0x0a, 0x98, 0xbc, 0x3b, 0x5b, 0x3f, 0xbc,
  0xd6, 0xb6, 0xe2, 0x3e, 0x96, 0xfe, 0xff, 0xff, 0x04, 0x00, 0x00, 0x00,
  0x40, 0x00, 0x00, 0x00, 0x58, 0x00, 0x16, 0xbe, 0xa6, 0xfa, 0xd0, 0xbe,
  0xec, 0xdb, 0x36, 0xbf, 0xff, 0x37, 0x02, 0xbe, 0x1f, 0xb8, 0x3c, 0xbe,
  0x0d, 0xb6, 0x1f, 0x3f, 0x92, 0x1f, 0xee, 0x3d, 0x1a, 0x86, 0xe0, 0x3d,
  0x39, 0x51, 0x23, 0x3f, 0x47, 0x77, 0x2a, 0xbe, 0xed, 0x1f, 0x6f, 0x3e,
  0x25, 0x7a, 0x34, 0x3f, 0x84, 0xe2, 0x13, 0x3b, 0x88, 0x9b, 0x30, 0x3e,
  0x1a, 0xf8, 0x5a, 0xbb, 0x5c, 0xe6, 0x82, 0x3d, 0xe2, 0xfe, 0xff, 0xff,
  0x04, 0x00, 0x00, 0x00, 0x40, 0x00, 0x00, 0x00, 0x7d, 0x19, 0x5b, 0xbd,
  0xba, 0x2b, 0xc0, 0xbe, 0xce, 0x21, 0xe7, 0xbe, 0x08, 0xf7, 0x89, 0x3e,
  0x12, 0x7e, 0x92, 0x3e, 0x87, 0x6a, 0x86, 0x3e, 0x39, 0xcf, 0xa1, 0x3e,
  0x41, 0xf4, 0x88, 0xbd, 0xdd, 0x1b, 0xf7, 0x3e, 0xcf, 0xd3, 0x7b, 0x3e,
  0xd0, 0xb7, 0xa6, 0x3d, 0xea, 0xb2, 0x19, 0x3e, 0x2e, 0x3e, 0xf5, 0xbe,
  0x1e, 0x22, 0x71, 0xbc, 0x5d, 0xb6, 0x9a, 0x3e, 0x51, 0x32, 0x19, 0x3e,
  0x2e, 0xff, 0xff, 0xff, 0x04, 0x00, 0x00, 0x00, 0x08, 0x00, 0x00, 0x00,
  0xff, 0xff, 0xff, 0xff, 0x90, 0x01, 0x00, 0x00, 0x42, 0xff, 0xff, 0xff,
  0x04, 0x00, 0x00, 0x00, 0x10, 0x00, 0x00, 0x00, 0x00, 0x00, 0x00, 0x00,
  0x00, 0x00, 0x00, 0x00, 0x00, 0x00, 0x00, 0x00, 0x00, 0x00, 0x00, 0x00,
  0x5e, 0xff, 0xff, 0xff, 0x04, 0x00, 0x00, 0x00, 0x10, 0x00, 0x00, 0x00,
  0x4f, 0x46, 0xb6, 0x3d, 0x8c, 0x3a, 0xdb, 0xbd, 0xcf, 0xe5, 0x17, 0x3d,
  0x64, 0xee, 0xf5, 0xbc, 0xc0, 0xf7, 0xff, 0xff, 0xc4, 0xf7, 0xff, 0xff,
  0x0f, 0x00, 0x00, 0x00, 0x4d, 0x4c, 0x49, 0x52, 0x20, 0x43, 0x6f, 0x6e,
  0x76, 0x65, 0x72, 0x74, 0x65, 0x64, 0x2e, 0x00, 0x01, 0x00, 0x00, 0x00,
  0x14, 0x00, 0x00, 0x00, 0x00, 0x00, 0x0e, 0x00, 0x18, 0x00, 0x14, 0x00,
  0x10, 0x00, 0x0c, 0x00, 0x08, 0x00, 0x04, 0x00, 0x0e, 0x00, 0x00, 0x00,
  0x14, 0x00, 0x00, 0x00, 0x1c, 0x00, 0x00, 0x00, 0x8c, 0x01, 0x00, 0x00,
  0x90, 0x01, 0x00, 0x00, 0x94, 0x01, 0x00, 0x00, 0x04, 0x00, 0x00, 0x00,
  0x6d, 0x61, 0x69, 0x6e, 0x00, 0x00, 0x00, 0x00, 0x04, 0x00, 0x00, 0x00,
  0xd4, 0x00, 0x00, 0x00, 0x94, 0x00, 0x00, 0x00, 0x50, 0x00, 0x00, 0x00,
  0x04, 0x00, 0x00, 0x00, 0xc6, 0xff, 0xff, 0xff, 0x1c, 0x00, 0x00, 0x00,
  0x00, 0x00, 0x00, 0x09, 0x1c, 0x00, 0x00, 0x00, 0x20, 0x00, 0x00, 0x00,
  0x03, 0x00, 0x00, 0x00, 0x00, 0x00, 0x06, 0x00, 0x08, 0x00, 0x04, 0x00,
  0x06, 0x00, 0x00, 0x00, 0x00, 0x00, 0x80, 0x3f, 0x01, 0x00, 0x00, 0x00,
  0x15, 0x00, 0x00, 0x00, 0x01, 0x00, 0x00, 0x00, 0x14, 0x00, 0x00, 0x00,
  0x00, 0x00, 0x0e, 0x00, 0x18, 0x00, 0x14, 0x00, 0x10, 0x00, 0x0c, 0x00,
  0x0b, 0x00, 0x04, 0x00, 0x0e, 0x00, 0x00, 0x00, 0x14, 0x00, 0x00, 0x00,
  0x00, 0x00, 0x00, 0x08, 0x10, 0x00, 0x00, 0x00, 0x14, 0x00, 0x00, 0x00,
  0x02, 0x00, 0x00, 0x00, 0x8c, 0xf8, 0xff, 0xff, 0x01, 0x00, 0x00, 0x00,
  0x14, 0x00, 0x00, 0x00, 0x03, 0x00, 0x00, 0x00, 0x13, 0x00, 0x00, 0x00,
  0x10, 0x00, 0x00, 0x00, 0x01, 0x00, 0x00, 0x00, 0x00, 0x00, 0x0a, 0x00,
  0x10, 0x00, 0x0c, 0x00, 0x08, 0x00, 0x04, 0x00, 0x0a, 0x00, 0x00, 0x00,
  0x0c, 0x00, 0x00, 0x00, 0x10, 0x00, 0x00, 0x00, 0x01, 0x00, 0x00, 0x00,
  0x01, 0x00, 0x00, 0x00, 0x13, 0x00, 0x00, 0x00, 0x02, 0x00, 0x00, 0x00,
  0x12, 0x00, 0x00, 0x00, 0x03, 0x00, 0x00, 0x00, 0x00, 0x00, 0x16, 0x00,
  0x18, 0x00, 0x00, 0x00, 0x14, 0x00, 0x10, 0x00, 0x0f, 0x00, 0x08, 0x00,
  0x00, 0x00, 0x00, 0x00, 0x00, 0x00, 0x04, 0x00, 0x16, 0x00, 0x00, 0x00,
  0x14, 0x00, 0x00, 0x00, 0x1c, 0x00, 0x00, 0x00, 0x00, 0x00, 0x00, 0x47,
  0x20, 0x00, 0x00, 0x00, 0x24, 0x00, 0x00, 0x00, 0x00, 0x00, 0x00, 0x00,
  0x08, 0x00, 0x0c, 0x00, 0x0b, 0x00, 0x04, 0x00, 0x08, 0x00, 0x00, 0x00,
  0x00, 0x00, 0x20, 0x41, 0x00, 0x00, 0x00, 0x04, 0x01, 0x00, 0x00, 0x00,
  0x12, 0x00, 0x00, 0x00, 0x18, 0x00, 0x00, 0x00, 0x00, 0x00, 0x00, 0x00,
  0x0c, 0x00, 0x00, 0x00, 0x0d, 0x00, 0x00, 0x00, 0x0e, 0x00, 0x00, 0x00,
  0x0f, 0x00, 0x00, 0x00, 0x04, 0x00, 0x00, 0x00, 0x05, 0x00, 0x00, 0x00,
  0x06, 0x00, 0x00, 0x00, 0x07, 0x00, 0x00, 0x00, 0xff, 0xff, 0xff, 0xff,
  0xff, 0xff, 0xff, 0xff, 0xff, 0xff, 0xff, 0xff, 0x08, 0x00, 0x00, 0x00,
  0x09, 0x00, 0x00, 0x00, 0x0a, 0x00, 0x00, 0x00, 0x0b, 0x00, 0x00, 0x00,
  0xff, 0xff, 0xff, 0xff, 0xff, 0xff, 0xff, 0xff, 0x02, 0x00, 0x00, 0x00,
  0x11, 0x00, 0x00, 0x00, 0xff, 0xff, 0xff, 0xff, 0xff, 0xff, 0xff, 0xff,
  0xff, 0xff, 0xff, 0xff, 0xff, 0xff, 0xff, 0xff, 0x01, 0x00, 0x00, 0x00,
  0x15, 0x00, 0x00, 0x00, 0x01, 0x00, 0x00, 0x00, 0x00, 0x00, 0x00, 0x00,
  0x16, 0x00, 0x00, 0x00, 0x48, 0x06, 0x00, 0x00, 0xd0, 0x05, 0x00, 0x00,
  0x88, 0x05, 0x00, 0x00, 0x20, 0x05, 0x00, 0x00, 0xc8, 0x04, 0x00, 0x00,
  0x88, 0x04, 0x00, 0x00, 0x48, 0x04, 0x00, 0x00, 0x08, 0x04, 0x00, 0x00,
  0xcc, 0x03, 0x00, 0x00, 0x90, 0x03, 0x00, 0x00, 0x54, 0x03, 0x00, 0x00,
  0x18, 0x03, 0x00, 0x00, 0xd8, 0x02, 0x00, 0x00, 0x98, 0x02, 0x00, 0x00,
  0x54, 0x02, 0x00, 0x00, 0x10, 0x02, 0x00, 0x00, 0xbc, 0x01, 0x00, 0x00,
  0x74, 0x01, 0x00, 0x00, 0x1c, 0x01, 0x00, 0x00, 0xc8, 0x00, 0x00, 0x00,
  0x50, 0x00, 0x00, 0x00, 0x04, 0x00, 0x00, 0x00, 0x26, 0xfa, 0xff, 0xff,
  0x00, 0x00, 0x00, 0x01, 0x10, 0x00, 0x00, 0x00, 0x10, 0x00, 0x00, 0x00,
  0x16, 0x00, 0x00, 0x00, 0x28, 0x00, 0x00, 0x00, 0x10, 0xfa, 0xff, 0xff,
  0x19, 0x00, 0x00, 0x00, 0x53, 0x74, 0x61, 0x74, 0x65, 0x66, 0x75, 0x6c,
  0x50, 0x61, 0x72, 0x74, 0x69, 0x74, 0x69, 0x6f, 0x6e, 0x65, 0x64, 0x43,
  0x61, 0x6c, 0x6c, 0x3a, 0x30, 0x00, 0x00, 0x00, 0x02, 0x00, 0x00, 0x00,
  0x01, 0x00, 0x00, 0x00, 0x04, 0x00, 0x00, 0x00, 0x6e, 0xfa, 0xff, 0xff,
  0x00, 0x00, 0x00, 0x01, 0x10, 0x00, 0x00, 0x00, 0x10, 0x00, 0x00, 0x00,
  0x15, 0x00, 0x00, 0x00, 0x54, 0x00, 0x00, 0x00, 0x58, 0xfa, 0xff, 0xff,
  0x44, 0x00, 0x00, 0x00, 0x4c, 0x53, 0x54, 0x4d, 0x5f, 0x53, 0x74, 0x61,
  0x74, 0x65, 0x6c, 0x65, 0x73, 0x73, 0x2f, 0x70, 0x72, 0x65, 0x64, 0x69,
  0x63, 0x74, 0x69, 0x6f, 0x6e, 0x73, 0x2f, 0x4d, 0x61, 0x74, 0x4d, 0x75,
  0x6c, 0x3b, 0x4c, 0x53, 0x54, 0x4d, 0x5f, 0x53, 0x74, 0x61, 0x74, 0x65,
  0x6c, 0x65, 0x73, 0x73, 0x2f, 0x70, 0x72, 0x65, 0x64, 0x69, 0x63, 0x74,
  0x69, 0x6f, 0x6e, 0x73, 0x2f, 0x42, 0x69, 0x61, 0x73, 0x41, 0x64, 0x64,
  0x00, 0x00, 0x00, 0x00, 0x02, 0x00, 0x00, 0x00, 0x01, 0x00, 0x00, 0x00,
  0x04, 0x00, 0x00, 0x00, 0xe2, 0xfa, 0xff, 0xff, 0x00, 0x00, 0x00, 0x01,
  0x10, 0x00, 0x00, 0x00, 0x10, 0x00, 0x00, 0x00, 0x14, 0x00, 0x00, 0x00,
  0x30, 0x00, 0x00, 0x00, 0xcc, 0xfa, 0xff, 0xff, 0x20, 0x00, 0x00, 0x00,
  0x4c, 0x53, 0x54, 0x4d, 0x5f, 0x53, 0x74, 0x61, 0x74, 0x65, 0x6c, 0x65,
  0x73, 0x73, 0x2f, 0x66, 0x6c, 0x61, 0x74, 0x74, 0x65, 0x6e, 0x5f, 0x31,
  0x2f, 0x52, 0x65, 0x73, 0x68, 0x61, 0x70, 0x65, 0x00, 0x00, 0x00, 0x00,
  0x02, 0x00, 0x00, 0x00, 0x01, 0x00, 0x00, 0x00, 0x90, 0x01, 0x00, 0x00,
  0x32, 0xfb, 0xff, 0xff, 0x00, 0x00, 0x00, 0x01, 0x10, 0x00, 0x00, 0x00,
  0x10, 0x00, 0x00, 0x00, 0x13, 0x00, 0x00, 0x00, 0x30, 0x00, 0x00, 0x00,
  0x1c, 0xfb, 0xff, 0xff, 0x20, 0x00, 0x00, 0x00, 0x74, 0x66, 0x6c, 0x2e,
  0x75, 0x6e, 0x69, 0x64, 0x69, 0x72, 0x65, 0x63, 0x74, 0x69, 0x6f, 0x6e,
  0x61, 0x6c, 0x5f, 0x73, 0x65, 0x71, 0x75, 0x65, 0x6e, 0x63, 0x65, 0x5f,
  0x6c, 0x73, 0x74, 0x6d, 0x00, 0x00, 0x00, 0x00, 0x03, 0x00, 0x00, 0x00,
  0x01, 0x00, 0x00, 0x00, 0x64, 0x00, 0x00, 0x00, 0x04, 0x00, 0x00, 0x00,
  0x3e, 0xfc, 0xff, 0xff, 0x00, 0x00, 0x01, 0x01, 0x0c, 0x00, 0x00, 0x00,
  0x0c, 0x00, 0x00, 0x00, 0x28, 0x00, 0x00, 0x00, 0x6c, 0xfb, 0xff, 0xff,
  0x1a, 0x00, 0x00, 0x00, 0x4c, 0x53, 0x54, 0x4d, 0x5f, 0x53, 0x74, 0x61,
  0x74, 0x65, 0x6c, 0x65, 0x73, 0x73, 0x2f, 0x6c, 0x73, 0x74, 0x6d, 0x2f,
  0x7a, 0x65, 0x72, 0x6f, 0x73, 0x31, 0x00, 0x00, 0x02, 0x00, 0x00, 0x00,
  0x01, 0x00, 0x00, 0x00, 0x04, 0x00, 0x00, 0x00, 0xca, 0xfb, 0xff, 0xff,
  0x00, 0x00, 0x00, 0x01, 0x10, 0x00, 0x00, 0x00, 0x10, 0x00, 0x00, 0x00,
  0x11, 0x00, 0x00, 0x00, 0x30, 0x00, 0x00, 0x00, 0xb4, 0xfb, 0xff, 0xff,
  0x21, 0x00, 0x00, 0x00, 0x4c, 0x53, 0x54, 0x4d, 0x5f, 0x53, 0x74, 0x61,
  0x74, 0x65, 0x6c, 0x65, 0x73, 0x73, 0x2f, 0x70, 0x72, 0x65, 0x64, 0x69,
  0x63, 0x74, 0x69, 0x6f, 0x6e, 0x73, 0x2f, 0x4d, 0x61, 0x74, 0x4d, 0x75,
  0x6c, 0x00, 0x00, 0x00, 0x02, 0x00, 0x00, 0x00, 0x04, 0x00, 0x00, 0x00,
  0x90, 0x01, 0x00, 0x00, 0x1a, 0xfc, 0xff, 0xff, 0x00, 0x00, 0x00, 0x01,
  0x10, 0x00, 0x00, 0x00, 0x10, 0x00, 0x00, 0x00, 0x10, 0x00, 0x00, 0x00,
  0x20, 0x00, 0x00, 0x00, 0x04, 0xfc, 0xff, 0xff, 0x10, 0x00, 0x00, 0x00,
  0x61, 0x72, 0x69, 0x74, 0x68, 0x2e, 0x63, 0x6f, 0x6e, 0x73, 0x74, 0x61,
  0x6e, 0x74, 0x31, 0x31, 0x00, 0x00, 0x00, 0x00, 0x02, 0x00, 0x00, 0x00,
  0x04, 0x00, 0x00, 0x00, 0x03, 0x00, 0x00, 0x00, 0x5a, 0xfc, 0xff, 0xff,
  0x00, 0x00, 0x00, 0x01, 0x10, 0x00, 0x00, 0x00, 0x10, 0x00, 0x00, 0x00,
  0x0f, 0x00, 0x00, 0x00, 0x20, 0x00, 0x00, 0x00, 0x44, 0xfc, 0xff, 0xff,
  0x10, 0x00, 0x00, 0x00, 0x61, 0x72, 0x69, 0x74, 0x68, 0x2e, 0x63, 0x6f,
  0x6e, 0x73, 0x74, 0x61, 0x6e, 0x74, 0x31, 0x30, 0x00, 0x00, 0x00, 0x00,
  0x02, 0x00, 0x00, 0x00, 0x04, 0x00, 0x00, 0x00, 0x03, 0x00, 0x00, 0x00,
  0x9a, 0xfc, 0xff, 0xff, 0x00, 0x00, 0x00, 0x01, 0x10, 0x00, 0x00, 0x00,
  0x10, 0x00, 0x00, 0x00, 0x0e, 0x00, 0x00, 0x00, 0x1c, 0x00, 0x00, 0x00,
  0x84, 0xfc, 0xff, 0xff, 0x0f, 0x00, 0x00, 0x00, 0x61, 0x72, 0x69, 0x74,
  0x68, 0x2e, 0x63, 0x6f, 0x6e, 0x73, 0x74, 0x61, 0x6e, 0x74, 0x39, 0x00,
  0x02, 0x00, 0x00, 0x00, 0x04, 0x00, 0x00, 0x00, 0x03, 0x00, 0x00, 0x00,
  0xd6, 0xfc, 0xff, 0xff, 0x00, 0x00, 0x00, 0x01, 0x10, 0x00, 0x00, 0x00,
  0x10, 0x00, 0x00, 0x00, 0x0d, 0x00, 0x00, 0x00, 0x1c, 0x00, 0x00, 0x00,
  0xc0, 0xfc, 0xff, 0xff, 0x0f, 0x00, 0x00, 0x00, 0x61, 0x72, 0x69, 0x74,
  0x68, 0x2e, 0x63, 0x6f, 0x6e, 0x73, 0x74, 0x61, 0x6e, 0x74, 0x38, 0x00,
  0x02, 0x00, 0x00, 0x00, 0x04, 0x00, 0x00, 0x00, 0x03, 0x00, 0x00, 0x00,
  0x12, 0xfd, 0xff, 0xff, 0x00, 0x00, 0x00, 0x01, 0x10, 0x00, 0x00, 0x00,
  0x10, 0x00, 0x00, 0x00, 0x0c, 0x00, 0x00, 0x00, 0x1c, 0x00, 0x00, 0x00,
  0xfc, 0xfc, 0xff, 0xff, 0x0f, 0x00, 0x00, 0x00, 0x61, 0x72, 0x69, 0x74,
  0x68, 0x2e, 0x63, 0x6f, 0x6e, 0x73, 0x74, 0x61, 0x6e, 0x74, 0x37, 0x00,
  0x01, 0x00, 0x00, 0x00, 0x04, 0x00, 0x00, 0x00, 0x4a, 0xfd, 0xff, 0xff,
  0x00, 0x00, 0x00, 0x01, 0x10, 0x00, 0x00, 0x00, 0x10, 0x00, 0x00, 0x00,
  0x0b, 0x00, 0x00, 0x00, 0x1c, 0x00, 0x00, 0x00, 0x34, 0xfd, 0xff, 0xff,
  0x0f, 0x00, 0x00, 0x00, 0x61, 0x72, 0x69, 0x74, 0x68, 0x2e, 0x63, 0x6f,
  0x6e, 0x73, 0x74, 0x61, 0x6e, 0x74, 0x36, 0x00, 0x01, 0x00, 0x00, 0x00,
  0x04, 0x00, 0x00, 0x00, 0x82, 0xfd, 0xff, 0xff, 0x00, 0x00, 0x00, 0x01,
  0x10, 0x00, 0x00, 0x00, 0x10, 0x00, 0x00, 0x00, 0x0a, 0x00, 0x00, 0x00,
  0x1c, 0x00, 0x00, 0x00, 0x6c, 0xfd, 0xff, 0xff, 0x0f, 0x00, 0x00, 0x00,
  0x61, 0x72, 0x69, 0x74, 0x68, 0x2e, 0x63, 0x6f, 0x6e, 0x73, 0x74, 0x61,
  0x6e, 0x74, 0x35, 0x00, 0x01, 0x00, 0x00, 0x00, 0x04, 0x00, 0x00, 0x00,
  0xba, 0xfd, 0xff, 0xff, 0x00, 0x00, 0x00, 0x01, 0x10, 0x00, 0x00, 0x00,
  0x10, 0x00, 0x00, 0x00, 0x09, 0x00, 0x00, 0x00, 0x1c, 0x00, 0x00, 0x00,
  0xa4, 0xfd, 0xff, 0xff, 0x0f, 0x00, 0x00, 0x00, 0x61, 0x72, 0x69, 0x74,
  0x68, 0x2e, 0x63, 0x6f, 0x6e, 0x73, 0x74, 0x61, 0x6e, 0x74, 0x34, 0x00,
  0x01, 0x00, 0x00, 0x00, 0x04, 0x00, 0x00, 0x00, 0xf2, 0xfd, 0xff, 0xff,
  0x00, 0x00, 0x00, 0x01, 0x10, 0x00, 0x00, 0x00, 0x10, 0x00, 0x00, 0x00,
  0x08, 0x00, 0x00, 0x00, 0x1c, 0x00, 0x00, 0x00, 0xdc, 0xfd, 0xff, 0xff,
  0x0f, 0x00, 0x00, 0x00, 0x61, 0x72, 0x69, 0x74, 0x68, 0x2e, 0x63, 0x6f,
  0x6e, 0x73, 0x74, 0x61, 0x6e, 0x74, 0x33, 0x00, 0x02, 0x00, 0x00, 0x00,
  0x04, 0x00, 0x00, 0x00, 0x04, 0x00, 0x00, 0x00, 0x2e, 0xfe, 0xff, 0xff,
  0x00, 0x00, 0x00, 0x01, 0x10, 0x00, 0x00, 0x00, 0x10, 0x00, 0x00, 0x00,
  0x07, 0x00, 0x00, 0x00, 0x1c, 0x00, 0x00, 0x00, 0x18, 0xfe, 0xff, 0xff,
  0x0f, 0x00, 0x00, 0x00, 0x61, 0x72, 0x69, 0x74, 0x68, 0x2e, 0x63, 0x6f,
  0x6e, 0x73, 0x74, 0x61, 0x6e, 0x74, 0x32, 0x00, 0x02, 0x00, 0x00, 0x00,
  0x04, 0x00, 0x00, 0x00, 0x04, 0x00, 0x00, 0x00, 0x6a, 0xfe, 0xff, 0xff,
  0x00, 0x00, 0x00, 0x01, 0x10, 0x00, 0x00, 0x00, 0x10, 0x00, 0x00, 0x00,
  0x06, 0x00, 0x00, 0x00, 0x1c, 0x00, 0x00, 0x00, 0x54, 0xfe, 0xff, 0xff,
  0x0f, 0x00, 0x00, 0x00, 0x61, 0x72, 0x69, 0x74, 0x68, 0x2e, 0x63, 0x6f,
  0x6e, 0x73, 0x74, 0x61, 0x6e, 0x74, 0x31, 0x00, 0x02, 0x00, 0x00, 0x00,
  0x04, 0x00, 0x00, 0x00, 0x04, 0x00, 0x00, 0x00, 0xa6, 0xfe, 0xff, 0xff,
  0x00, 0x00, 0x00, 0x01, 0x10, 0x00, 0x00, 0x00, 0x10, 0x00, 0x00, 0x00,
  0x05, 0x00, 0x00, 0x00, 0x1c, 0x00, 0x00, 0x00, 0x90, 0xfe, 0xff, 0xff,
  0x0e, 0x00, 0x00, 0x00, 0x61, 0x72, 0x69, 0x74, 0x68, 0x2e, 0x63, 0x6f,
  0x6e, 0x73, 0x74, 0x61, 0x6e, 0x74, 0x00, 0x00, 0x02, 0x00, 0x00, 0x00,
  0x04, 0x00, 0x00, 0x00, 0x04, 0x00, 0x00, 0x00, 0x00, 0x00, 0x16, 0x00,
  0x1c, 0x00, 0x18, 0x00, 0x17, 0x00, 0x10, 0x00, 0x0c, 0x00, 0x08, 0x00,
  0x00, 0x00, 0x00, 0x00, 0x00, 0x00, 0x07, 0x00, 0x16, 0x00, 0x00, 0x00,
  0x00, 0x00, 0x00, 0x01, 0x14, 0x00, 0x00, 0x00, 0x14, 0x00, 0x00, 0x00,
  0x04, 0x00, 0x00, 0x00, 0x00, 0x00, 0x00, 0x02, 0x2c, 0x00, 0x00, 0x00,
  0xe8, 0xfe, 0xff, 0xff, 0x1e, 0x00, 0x00, 0x00, 0x4c, 0x53, 0x54, 0x4d,
  0x5f, 0x53, 0x74, 0x61, 0x74, 0x65, 0x6c, 0x65, 0x73, 0x73, 0x2f, 0x66,
  0x6c, 0x61, 0x74, 0x74, 0x65, 0x6e, 0x5f, 0x31, 0x2f, 0x43, 0x6f, 0x6e,
  0x73, 0x74, 0x00, 0x00, 0x01, 0x00, 0x00, 0x00, 0x02, 0x00, 0x00, 0x00,
  0x00, 0x00, 0x16, 0x00, 0x14, 0x00, 0x10, 0x00, 0x00, 0x00, 0x00, 0x00,
  0x0c, 0x00, 0x08, 0x00, 0x07, 0x00, 0x00, 0x00, 0x00, 0x00, 0x06, 0x00,
  0x16, 0x00, 0x00, 0x00, 0x00, 0x00, 0x01, 0x01, 0x0c, 0x00, 0x00, 0x00,
  0x0c, 0x00, 0x00, 0x00, 0x28, 0x00, 0x00, 0x00, 0x44, 0xff, 0xff, 0xff,
  0x19, 0x00, 0x00, 0x00, 0x4c, 0x53, 0x54, 0x4d, 0x5f, 0x53, 0x74, 0x61,
  0x74, 0x65, 0x6c, 0x65, 0x73, 0x73, 0x2f, 0x6c, 0x73, 0x74, 0x6d, 0x2f,
  0x7a, 0x65, 0x72, 0x6f, 0x73, 0x00, 0x00, 0x00, 0x02, 0x00, 0x00, 0x00,
  0x01, 0x00, 0x00, 0x00, 0x04, 0x00, 0x00, 0x00, 0xa2, 0xff, 0xff, 0xff,
  0x00, 0x00, 0x00, 0x01, 0x10, 0x00, 0x00, 0x00, 0x10, 0x00, 0x00, 0x00,
  0x02, 0x00, 0x00, 0x00, 0x40, 0x00, 0x00, 0x00, 0x8c, 0xff, 0xff, 0xff,
  0x31, 0x00, 0x00, 0x00, 0x4c, 0x53, 0x54, 0x4d, 0x5f, 0x53, 0x74, 0x61,
  0x74, 0x65, 0x6c, 0x65, 0x73, 0x73, 0x2f, 0x70, 0x72, 0x65, 0x64, 0x69,
  0x63, 0x74, 0x69, 0x6f, 0x6e, 0x73, 0x2f, 0x42, 0x69, 0x61, 0x73, 0x41,
  0x64, 0x64, 0x2f, 0x52, 0x65, 0x61, 0x64, 0x56, 0x61, 0x72, 0x69, 0x61,
  0x62, 0x6c, 0x65, 0x4f, 0x70, 0x00, 0x00, 0x00, 0x01, 0x00, 0x00, 0x00,
  0x04, 0x00, 0x00, 0x00, 0x00, 0x00, 0x16, 0x00, 0x18, 0x00, 0x14, 0x00,
  0x00, 0x00, 0x10, 0x00, 0x0c, 0x00, 0x08, 0x00, 0x00, 0x00, 0x00, 0x00,
  0x00, 0x00, 0x07, 0x00, 0x16, 0x00, 0x00, 0x00, 0x00, 0x00, 0x00, 0x01,
  0x14, 0x00, 0x00, 0x00, 0x14, 0x00, 0x00, 0x00, 0x01, 0x00, 0x00, 0x00,
  0x24, 0x00, 0x00, 0x00, 0x04, 0x00, 0x04, 0x00, 0x04, 0x00, 0x00, 0x00,
  0x13, 0x00, 0x00, 0x00, 0x73, 0x65, 0x72, 0x76, 0x69, 0x6e, 0x67, 0x5f,
  0x64, 0x65, 0x66, 0x61, 0x75, 0x6c, 0x74, 0x5f, 0x78, 0x3a, 0x30, 0x00,
  0x03, 0x00, 0x00, 0x00, 0x01, 0x00, 0x00, 0x00, 0x64, 0x00, 0x00, 0x00,
  0x03, 0x00, 0x00, 0x00, 0x04, 0x00, 0x00, 0x00, 0x40, 0x00, 0x00, 0x00,
  0x24, 0x00, 0x00, 0x00, 0x14, 0x00, 0x00, 0x00, 0x04, 0x00, 0x00, 0x00,
  0xdc, 0xff, 0xff, 0xff, 0x19, 0x00, 0x00, 0x00, 0x00, 0x00, 0x00, 0x19,
  0xe8, 0xff, 0xff, 0xff, 0x09, 0x00, 0x00, 0x00, 0x00, 0x00, 0x00, 0x09,
  0xf4, 0xff, 0xff, 0xff, 0x16, 0x00, 0x00, 0x00, 0x00, 0x00, 0x00, 0x16,
  0x0c, 0x00, 0x0c, 0x00, 0x0b, 0x00, 0x00, 0x00, 0x00, 0x00, 0x04, 0x00,
  0x0c, 0x00, 0x00, 0x00, 0x2c, 0x00, 0x00, 0x00, 0x00, 0x00, 0x00, 0x2c
};
const unsigned int lstm_model_tflite_len = 9924;
